'<pad>_'
'<eos>_'
'<unk>_'
'and_'
'in_'
'the_'
'for_'
'to_'
'of_'
'|_'
'-_'
'a_'
'&_'
'is_'
'with_'
'your_'
'We_'
'The_'
'our_'
'you_'
'are_'
'services_'
'on_'
'that_'
'from_'
'solutions_'
'by_'
'business_'
'at_'
'Services_'
'or_'
'an_'
'company_'
'all_'
'inc._'
'–_'
'we_'
'best_'
'more_'
'Our_'
'digital_'
'New_'
'Management_'
'leading_'
'Home_'
'IT_'
'help_'
'ltd_'
'management_'
'Company_'
'marketing_'
'design_'
'as_'
'provides_'
'Marketing_'
'Solutions_'
'Business_'
'us_'
'service_'
'has_'
'Your_'
'new_'
'Digital_'
'offers_'
'online_'
'Agency_'
'Design_'
'software_'
'agency_'
'can_'
'A_'
'products_'
'Group_'
'have_'
'their_'
'group_'
'quality_'
'Software_'
'For_'
'Estate_'
'Best_'
'technology_'
'development_'
'based_'
'over_'
'providing_'
'provide_'
'Real_'
'one_'
'Online_'
'llc_'
'offer_'
'home_'
'UK_'
'Call_'
'Web_'
'web_'
'estate_'
'find_'
'care_'
'commercial_'
'real_'
'Development_'
'limited_'
'it_'
'most_'
'website_'
'free_'
'firm_'
'range_'
'more._'
'systems_'
'including_'
'through_'
'Inc._'
'make_'
'Service_'
'across_'
'data_'
'clients_'
'London_'
'Find_'
'Get_'
'support_'
'platform_'
'about_'
'get_'
'today!_'
'services._'
'In_'
'global_'
'team_'
'industry_'
'insurance_'
'been_'
'high_'
'Welcome_'
'law_'
'years_'
'offering_'
'since_'
'local_'
'experience_'
'custom_'
'Training_'
'businesses_'
'media_'
'international_'
'companies_'
'Systems_'
'out_'
'professional_'
'Insurance_'
'financial_'
'people_'
'inc_'
'Commercial_'
'India_'
'International_'
'Care_'
'Technology_'
'South_'
'health_'
'solution_'
'Contact_'
'world_'
'Law_'
'School_'
'Media_'
'consulting_'
'today._'
'what_'
'located_'
'Products_'
'Support_'
'Free_'
'than_'
'used_'
'property_'
'create_'
'information_'
'equipment_'
'social_'
'Financial_'
'school_'
'serving_'
'Visit_'
'build_'
'With_'
'Consulting_'
'first_'
'will_'
'training_'
'creative_'
'mobile_'
'sales_'
'full_'
'Custom_'
'Firm_'
'Leading_'
'who_'
'At_'
'Property_'
'private_'
'family_'
'provider_'
'construction_'
'services,_'
'be_'
'medical_'
'Medical_'
'other_'
'brand_'
'Mobile_'
'design,_'
'corporate_'
'Shop_'
'energy_'
'customers_'
'Buy_'
'community_'
'Center_'
'today_'
'personal_'
'technologies_'
'ltd._'
'customer_'
'work_'
'San_'
'wide_'
'Learn_'
'industrial_'
'From_'
'Health_'
'into_'
'how_'
'needs_'
'manufacturer_'
'Luxury_'
'Global_'
'Data_'
'source_'
'any_'
'looking_'
'system_'
'North_'
'Creative_'
'Top_'
'premier_'
'West_'
'innovative_'
'top_'
'supply_'
'using_'
'center_'
'brands_'
'Construction_'
'Hotel_'
'independent_'
'experts_'
'Office_'
'Professional_'
'great_'
'its_'
'up_'
'Industrial_'
'well_'
'food_'
'car_'
'office_'
'Since_'
'leader_'
'Equipment_'
'production_'
'easy_'
'City_'
'near_'
'power_'
'made_'
'helps_'
'Video_'
'York_'
'app_'
'manufacturing_'
'Family_'
'network_'
'affordable_'
'trusted_'
'+_'
'Personal_'
'legal_'
'You_'
'Discover_'
'Used_'
'security_'
'life_'
'deliver_'
'Quality_'
'dedicated_'
'SEO_'
'Platform_'
'around_'
'needs._'
'Security_'
'To_'
'Dealer_'
'education_'
'Cloud_'
'expertise_'
'engineering_'
'need_'
'travel_'
'research_'
'largest_'
'solutions._'
'small_'
'right_'
'Homes_'
'specializes_'
'learning_'
'Energy_'
'healthcare_'
'Website_'
'All_'
'High_'
'One_'
'Sports_'
'investment_'
'you._'
'professionals_'
'App_'
'do_'
'Building_'
'building_'
'Sales_'
'way_'
'And_'
'throughout_'
'Lawyers_'
'now_'
'industry._'
'partner_'
'business._'
'public_'
'homes_'
'Ltd_'
'Search_'
'Canada_'
'event_'
'Provider_'
'events_'
'every_'
'sale_'
'hotel_'
'recruitment_'
'residential_'
'Central_'
'Specialists_'
'planning_'
'market_'
'County_'
'here_'
'luxury_'
'just_'
'only_'
'/_'
'where_'
'Manufacturer_'
'Corporate_'
'use_'
'experienced_'
'Florida_'
'development,_'
'many_'
'Car_'
'world._'
'variety_'
'Serving_'
'call_'
'Community_'
'content_'
'unique_'
'specializing_'
'tax_'
'Technologies_'
'video_'
'Capital_'
'area._'
'Los_'
'advertising_'
'Associates_'
'cloud_'
'live_'
'Local_'
'#1_'
'Engineering_'
'latest_'
'Private_'
'Book_'
'designed_'
'Ford_'
'USA_'
'complete_'
'Partners_'
'access_'
'Australia_'
'supplier_'
'Managed_'
'product_'
'delivering_'
'specialist_'
'helping_'
'advanced_'
'Legal_'
'Power_'
'Resources_'
'built_'
'shop_'
'Toyota_'
'Sale_'
'improve_'
'selection_'
'grow_'
'Event_'
'general_'
'so_'
'expert_'
'Toronto_'
'capital_'
'music_'
'water_'
'smart_'
'Life_'
'better_'
'management,_'
'which_'
'also_'
'working_'
'committed_'
'like_'
'products._'
'East_'
'learn_'
'direct_'
'Smart_'
'NY_'
'no_'
'Recruitment_'
'products,_'
'Public_'
'Services,_'
'years._'
'consultancy_'
'advice_'
'industries_'
'winning_'
'designs_'
'company._'
'available_'
'Water_'
'tools_'
'Planning_'
'B2B_'
'corporation_'
'We're_'
'Wholesale_'
'Attorneys_'
'award-winning_'
'Education_'
'Social_'
'Industry_'
'achieve_'
'communications_'
'An_'
'control_'
'makes_'
'Dental_'
'Research_'
'specialists_'
'such_'
'Automation_'
'Auto_'
'partners_'
'highest_'
'PR_'
'focused_'
'treatment_'
'sports_'
'comprehensive_'
'System_'
'include_'
'LED_'
'large_'
'more!_'
'Air_'
'CA_'
'natural_'
'Travel_'
'It_'
'next_'
'Solution_'
'project_'
'manage_'
'furniture_'
'NYC_'
'LLC_'
'Experts_'
'this_'
'locations_'
'bring_'
'Based_'
'Network_'
'day_'
'site_'
'Texas_'
'programs_'
'Investment_'
'24/7_'
'—_'
'Food_'
'time_'
'California_'
'Injury_'
'modern_'
'safety_'
'Foundation_'
'tech_'
'NJ_'
'performance_'
'Trusted_'
'certified_'
'If_'
'Learning_'
'focus_'
'Enterprise_'
'meet_'
'children_'
'become_'
'Institute_'
'This_'
'Specialist_'
'World_'
'Looking_'
'they_'
'service,_'
'ERP_'
'logistics_'
'projects_'
'Tax_'
'materials_'
'experiences_'
'Supply_'
'national_'
'heart_'
'National_'
'de_'
':_'
'specialising_'
'repair_'
'vision_'
'As_'
'solar_'
'solutions,_'
'delivers_'
'associates_'
'Fort_'
'American_'
'application_'
'value_'
'connect_'
'strategic_'
'believe_'
'bespoke_'
'Therapy_'
'Premium_'
'Gold_'
'30_'
'take_'
'Treatment_'
'love_'
'Dealership_'
'process_'
'Accountants_'
'Angeles_'
'Create_'
'Solar_'
'TX_'
'Centre_'
'Healthcare_'
'mission_'
'Award_'
'highly_'
'not_'
'service._'
'premium_'
'retail_'
'cost_'
'full-service_'
'AI_'
'parts_'
'Store_'
'world's_'
'specialize_'
'United_'
'them_'
'talent_'
'art_'
'industries._'
'Manufacturing_'
'own_'
'boutique_'
'search_'
'all._'
'technical_'
'future_'
'Performance_'
'delivery_'
'experience._'
'technology._'
'job_'
'Safety_'
'UK._'
'store_'
'organization_'
'Make_'
'Independent_'
'Tech_'
'dealership_'
'perfect_'
'Repair_'
'Greater_'
'credit_'
'auto_'
'•_'
'Fitness_'
'properties_'
'air_'
'Natural_'
'secure_'
'machine_'
'Mortgage_'
'living_'
'reliable_'
'teams_'
'Music_'
'Full_'
'students_'
'Furniture_'
'Project_'
'Made_'
'llp_'
'tool_'
'individuals_'
'Agents_'
'SEO,_'
'100%_'
'automation_'
'vehicle_'
'place_'
'injury_'
'cars_'
'St._'
'Experience_'
'Join_'
'when_'
'communication_'
'kids_'
'staff_'
'hire_'
'Events_'
'payment_'
'resource_'
'Partner_'
'results_'
'Ltd._'
'works_'
'would_'
'European_'
'lawyers_'
'Control_'
'you’re_'
'foundation_'
'integrated_'
'making_'
'fashion_'
'Let_'
'courses_'
'English_'
'worldwide_'
'rental_'
'within_'
'area_'
'Consultants_'
'established_'
'supplies_'
'Providing_'
'Information_'
'Direct_'
'Ireland_'
'Great_'
'Association_'
'practice_'
'fitness_'
'Advisors_'
'Premier_'
'searching_'
'Team_'
'much_'
'owned_'
'Valley_'
'change_'
'Inc_'
'specialized_'
'growing_'
'College_'
'Accounting_'
'hope_'
'city_'
'increase_'
'creating_'
'systems,_'
'Innovative_'
'powerful_'
'leaders_'
'develop_'
'Companies_'
'fully_'
'save_'
'India._'
'Internet_'
'personalized_'
'drive_'
'knowledge_'
'Chevrolet_'
'house_'
'Brand_'
'was_'
'outdoor_'
'those_'
'House_'
'No_'
'tours_'
'accounting_'
'printing_'
'hair_'
'sustainable_'
'studio_'
'sale!_'
'Design,_'
'Studio_'
'Build_'
'advisory_'
'equipment,_'
'money_'
'off_'
'both_'
'Northern_'
'dental_'
'Australian_'
'lifestyle_'
'Certified_'
'More_'
'Leader_'
'want_'
'vehicles_'
'First_'
'Tours_'
'MA_'
'low_'
'People_'
'PA_'
'Supplier_'
'cleaning_'
'Cleaning_'
'eye_'
'Metal_'
'Resort_'
'Courses_'
'Production_'
'Start_'
'virtual_'
'now!_'
'good_'
'company,_'
'Residential_'
'finance_'
'innovation_'
'marketing,_'
'apps_'
'storage_'
'wellness_'
'Rent_'
'Europe_'
'strategy_'
'Helping_'
'expect_'
'maintenance_'
'Precision_'
'Advertising_'
'Africa_'
'Over_'
'why_'
'developing_'
'field_'
'Wealth_'
'Businesses_'
'see_'
'enterprise_'
'CRM_'
'Hire_'
'chain_'
'Affordable_'
'for._'
'lighting_'
'visit_'
'women_'
'institute_'
'reputation_'
'entertainment_'
'Staffing_'
'simple_'
'Use_'
'Explore_'
'accessories_'
'serve_'
'Located_'
'ready_'
'contact_'
'Fire_'
'Bay_'
'Of_'
'Hair_'
'managed_'
'while_'
'part_'
'here,_'
'online._'
'Microsoft_'
'Parts_'
'Diamond_'
'compliance_'
'businesses._'
'manufacture_'
'Content_'
'Expert_'
'Blue_'
'agents_'
'Are_'
'Easy_'
'manufactures_'
'long_'
'Open_'
'areas_'
'Supplies_'
'distributor_'
'two_'
'growth_'
'Broker_'
'systems._'
'2_'
'mortgage_'
'competitive_'
'effective_'
'Chicago_'
'risk_'
'each_'
'Corporation_'
'approach_'
'topics_'
'for!_'
'Communications_'
'college_'
'5_'
'Lake_'
'safe_'
'Computer_'
'generation_'
'ensure_'
'class_'
'15_'
'Work_'
'distribution_'
'Near_'
'clients._'
'Area_'
'providers_'
'News_'
'City,_'
'Coffee_'
'line_'
'buy_'
'go_'
'beautiful_'
'Storage_'
'things_'
'consultants_'
'Product_'
'Sydney_'
'specialise_'
'shipping_'
'fast_'
'Future_'
'flexible_'
'association_'
'order_'
'Executive_'
'✓_'
'exceptional_'
'guide_'
'years,_'
'offices_'
'Information._'
'level_'
'UK's_'
'Small_'
'via_'
'Customer_'
'Consultancy_'
'lead_'
'Virtual_'
'Offering_'
'Solutions,_'
'Grand_'
'Austin_'
'contract_'
'electrical_'
'Melbourne_'
'reduce_'
'pty_'
'4_'
'St_'
'Come_'
'India,_'
'greater_'
'state_'
'Day_'
'Self_'
'Jobs_'
'quote_'
'internet_'
'worldwide._'
'oil_'
'sell_'
'Now_'
'some_'
'planning,_'
'child_'
'user_'
'analysis_'
'Branding_'
'assist_'
'Finance_'
'student_'
'fun_'
'high-quality_'
'Electrical_'
'organisations_'
'trade_'
'companies._'
'architectural_'
'award_'
'Restaurant_'
'HR_'
'Site_'
'Coast_'
'20_'
'outstanding_'
'government_'
'various_'
'Island_'
'restaurant_'
'2020_'
'USA._'
'exchange_'
'india_'
'Fine_'
'automotive_'
'Space_'
'know_'
'patients_'
'centre_'
'On_'
'Winning_'
'amazing_'
'choice_'
'America_'
'but_'
'audio_'
'HVAC_'
'Beach_'
'fire_'
'Whether_'
'supporting_'
'standard_'
'pvt._'
'plan_'
'visual_'
'Science_'
'Phoenix_'
'Limited_'
'Machine_'
'UK’s_'
'sales,_'
'consumer_'
'therapy_'
'Oregon_'
'applications_'
'coffee_'
'Good_'
'young_'
'Environmental_'
'everything_'
'manufacturers_'
'development._'
'Academy_'
'wholesale_'
'whole_'
'Official_'
'wedding_'
'Marketing,_'
'Trade_'
'commercial,_'
'exclusive_'
'quality,_'
'attorneys_'
'results._'
'Wireless_'
'1_'
'metal_'
'US_'
'100_'
'Fast_'
'asset_'
'Hills_'
'ideas_'
'Asset_'
'Moving_'
'run_'
'County,_'
'Choose_'
'trading_'
'interior_'
'FREE_'
'Accessories_'
'Printing_'
'Organic_'
'Technical_'
'monitoring_'
'steel_'
'complex_'
'news_'
'Cars_'
'Light_'
'options_'
'marine_'
'goals._'
'clinical_'
'en_'
'prices_'
'look_'
'non-profit_'
'staffing_'
'Zealand_'
'healthy_'
'Click_'
'Wedding_'
'big_'
'Apartments_'
'packages_'
'By_'
'engagement_'
'land_'
'trust_'
'Rentals_'
'precision_'
'name_'
'extensive_'
'email_'
'uk_'
'Delivery_'
'Pool_'
'Logistics_'
'space_'
'moving_'
'catering_'
'intelligence_'
'Volkswagen_'
'Recovery_'
'wealth_'
'3D_'
'hard_'
'training,_'
'eCommerce_'
'Management,_'
'always_'
'London,_'
'Park_'
'Film_'
'Better_'
'Church_'
'efficient_'
'Test_'
'test_'
'Dynamics_'
'infrastructure_'
'science_'
'facilities_'
'together_'
'impact_'
'very_'
'environmental_'
'interactive_'
'events,_'
'General_'
'types_'
'without_'
'hospitality_'
'Portland_'
'Industries_'
'Help_'
'arts_'
'sells_'
'Australia's_'
'LLP_'
'creates_'
'driven_'
'·_'
'Every_'
'patient_'
'green_'
'Co._'
'shopping_'
'Talent_'
'operations_'
'Properties_'
'Delivering_'
'life._'
'rent_'
'remote_'
'Beauty_'
'IoT_'
'firm,_'
'I_'
'proven_'
'Specializing_'
'special_'
'Practice_'
'Android_'
'Club_'
'Testing_'
'excellent_'
'home,_'
'Emergency_'
'Established_'
'transformation_'
'beauty_'
'transportation_'
'original_'
'U.S._'
'etc._'
'Clinic_'
'collection_'
'Intelligence_'
'prices._'
'management._'
'Projects_'
'traditional_'
'law,_'
'Live_'
'leadership_'
'Asia_'
'enable_'
'selling_'
'Red_'
'deals_'
'lives_'
'dealer_'
'advisors_'
'Credit_'
'success_'
'if_'
'gmbh_'
'protection_'
'Virginia_'
'processing_'
'experience,_'
'print_'
'book_'
'families_'
'Minnesota_'
'Trust_'
'Access_'
'edge_'
'Southern_'
'challenges_'
'Green_'
'care._'
'Houston_'
'electric_'
'Marine_'
'Perth_'
'opportunities_'
'academy_'
'plus_'
'time._'
'end_'
'film_'
'open_'
'customers._'
'Bespoke_'
'market._'
'communities_'
'Order_'
'delivered_'
'home._'
'fleet_'
'finest_'
'rated_'
'strategies_'
'Delhi_'
'organizations_'
'Francisco_'
'goal_'
'organic_'
'Living_'
'computer_'
'fine_'
'start_'
'How_'
'plastic_'
'testing_'
'Protection_'
'Advanced_'
'daily_'
'software._'
'Michigan_'
'revenue_'
'multiple_'
'Jersey_'
'Steel_'
'Hospital_'
'Market_'
'Vancouver_'
'Farm_'
'Secure_'
'Realty_'
'technology,_'
'human_'
'gift_'
'Most_'
'Art_'
'brings_'
'Leaders_'
'along_'
'Lighting_'
'Hong_'
'Brands_'
'See_'
'physical_'
'produce_'
'community._'
'Group,_'
'Yoga_'
'Glass_'
'Oil_'
'developers_'
'Strategic_'
'Wellness_'
'We’re_'
'co._'
'Ohio_'
'Manufacturers_'
'price_'
'care,_'
'brokers_'
'pvt_'
'Empowering_'
'kitchen_'
'Kitchen_'
'Chartered_'
'wireless_'
'Philadelphia_'
'we're_'
'truck_'
'jobs_'
'Employment_'
'same_'
'Stop_'
'strong_'
'employee_'
'Pet_'
'Services._'
'touch_'
'everyone_'
'Complete_'
'Trading_'
'connecting_'
'educational_'
'executive_'
'Designed_'
'clothing_'
'active_'
'stop_'
'THE_'
'drug_'
'related_'
'Louis_'
'recovery_'
'schools_'
'back_'
'software,_'
'Audio_'
'Agent_'
'Plastic_'
'Miami_'
'applications._'
'lab_'
'Analysis_'
'Architecture_'
'Transport_'
'Board_'
'Page_'
'thousands_'
'Maintenance_'
'NZ_'
'handling_'
'Growth_'
'authentic_'
'Integrated_'
'promotional_'
'3_'
'components_'
'1300_'
'castings,_'
'CT_'
'surrounding_'
'Compliance_'
'design._'
'designers_'
'projects._'
'Kids_'
'friendly_'
'chemical_'
'health,_'
'Interactive_'
'Compare_'
'activities_'
'Chain_'
'alternative_'
'Physical_'
'phone_'
'Electric_'
'Camp_'
'Save_'
'Deals_'
'resources_'
'here._'
'La_'
'you're_'
'Loans_'
'accommodation_'
'Founded_'
'London._'
'improving_'
'Innovation_'
'agency,_'
'co_'
'Materials_'
'Star_'
'Try_'
'â_'
'campaigns_'
'transport_'
'develops_'
'language_'
'Country_'
'Special_'
'track_'
'Time_'
'Outdoor_'
'Gym_'
'Drug_'
'environment_'
'Check_'
'Colorado_'
'marketing._'
'Sign_'
'Retail_'
'Builders_'
'ultimate_'
'View_'
'jewelry_'
'programs,_'
'cancer_'
'against_'
'animal_'
'specialty_'
'Application_'
'forms_'
'Recruiting_'
'Advice_'
'material_'
'specialises_'
'agency._'
'Hardware_'
'pet_'
'blue_'
'includes_'
'TV_'
'Hill_'
'CNC_'
'British_'
'Document_'
'Point_'
'Lead_'
'business,_'
'artists_'
'areas._'
'Big_'
'Game_'
'successful_'
'superior_'
'Advisory_'
'suppliers_'
'features_'
'Mumbai_'
'match_'
'skills_'
'coaching_'
'body_'
'client_'
'games_'
'charity_'
'reach_'
'Contractors_'
'church_'
'friends_'
'handle_'
'light_'
'now._'
'Women_'
'Development,_'
'covering_'
'landscape_'
'Branding,_'
'Massachusetts_'
'WordPress_'
'MI_'
'club_'
'rentals_'
'division_'
'Dublin_'
'empower_'
'retirement_'
'Village_'
'Fuel_'
'Worldwide_'
'Land_'
'Language_'
'Heating_'
'bank_'
'connects_'
'State_'
'40_'
'card_'
'Eye_'
'appointment_'
'Lab_'
'District_'
'inventory_'
'Fashion_'
'realty_'
'transform_'
'room_'
'Boutique_'
'created_'
'tour_'
'group,_'
'Dubai_'
'SAP_'
'Illinois_'
'fresh_'
'Plus_'
'Street_'
'golf_'
'Company,_'
'50_'
'customized_'
'Waste_'
'skilled_'
'Today!_'
'platform._'
'ISO_'
'Cape_'
'youth_'
'hosting_'
'downtown_'
'SaaS_'
'Italian_'
'Catering_'
'protect_'
'Transportation_'
'Be_'
'main_'
'OH_'
'BMW_'
'country_'
'Las_'
'VA_'
'Facebook_'
'powered_'
'tailored_'
'FL_'
'classes_'
'Up_'
'companies,_'
'Student_'
'senior_'
'diamond_'
'construction,_'
'Heavy_'
'never_'
'Child_'
'Process_'
'Landscape_'
'quickly_'
'keep_'
'easily_'
'program_'
'bv_'
'benefits_'
'packaging_'
'voice_'
'Pune_'
'sectors_'
'understand_'
'emergency_'
'UAE_'
'nationwide_'
'tracking_'
'Contract_'
'Shipping_'
'Remote_'
'usa_'
'pool_'
'England_'
'enjoy_'
'UK,_'
'Alliance_'
'skin_'
'housing_'
'Washington_'
'Orange_'
'available._'
'cyber_'
'security,_'
'Deep_'
'feel_'
'give_'
'Restoration_'
'dog_'
'models_'
'enables_'
'huge_'
'Rental_'
'Improve_'
'Pumps_'
'Packaging_'
'Investing_'
'blockchain_'
'Risk_'
'door_'
'Door_'
'Africa._'
'Australia._'
'may_'
'education,_'
'farm_'
'Request_'
'insights_'
'radio_'
'Print_'
'entire_'
'Falls_'
'electronic_'
'solution._'
'Browse_'
'DC_'
'gifts_'
'graphic_'
'holiday_'
'roofing_'
'-&nbspThis_'
'Interior_'
'Love_'
'Notary_'
'enterprises_'
'Little_'
'inspire_'
'Way_'
'strategy,_'
'Magento_'
'different_'
'Massage_'
'excellence_'
'Singapore_'
'durable_'
',_'
'ship_'
'Simple_'
'Senior_'
'Villas_'
'time,_'
'professionals._'
'Kansas_'
'States_'
'Laser_'
'Making_'
'little_'
'problems_'
'Distributor_'
'Today_'
'Next_'
'e-commerce_'
'Buick_'
'Toronto,_'
'Years_'
'loan_'
'stay_'
'scale_'
'branding_'
'park_'
'producing_'
'early_'
'court_'
'reporting_'
'consultation._'
'Lawyer_'
'instant_'
'matters_'
'uses_'
'&amp;_'
'aim_'
'Go_'
'Ventures_'
'exclusively_'
'machinery_'
'networks_'
'cutting_'
'van_'
'Council_'
'PPC,_'
'these_'
'Attorney_'
'associates,_'
'p.c._'
'fuel_'
'bringing_'
'discover_'
'startups_'
'major_'
'Phone_'
'Grow_'
'Modern_'
'experts._'
'Low_'
'proud_'
'World's_'
'Entertainment_'
'Strategy_'
'play_'
'That_'
'Creating_'
'._'
'Electronics_'
'Play_'
'device_'
'MN_'
'apparel_'
'between_'
'Union_'
'Total_'
'integration_'
'resort_'
'sound_'
'host_'
'Long_'
'under_'
'popular_'
'60_'
'surgery_'
'urban_'
'Northwest_'
'suite_'
'Charity_'
'speed_'
'Study_'
'teachers_'
'Clothing_'
'choose_'
'Apparel_'
'University_'
'brands._'
'Educational_'
'Architects_'
'fastest_'
'Success_'
'Drive_'
'being_'
'focuses_'
'Animal_'
'hospital_'
'China_'
'Magazine_'
'Santa_'
'firms_'
'intelligent_'
'Connecting_'
'Pest_'
'UX_'
'toyota_'
'provided_'
'australia_'
'Promotional_'
'efficiency_'
'news,_'
'Sell_'
'Baby_'
'Wall_'
'Professionals_'
'processes_'
'Rock_'
'Card_'
'domestic_'
'civil_'
'Outsourcing_'
'Radio_'
'Somerset_'
'Hyundai_'
'dynamic_'
'Generation_'
'Motor_'
'365_'
'Sustainable_'
'animation_'
'Communication_'
'data,_'
'Dr._'
'official_'
'come_'
'Healthy_'
'sales._'
'Airport_'
'Medicine_'
'forward_'
'Holiday_'
'stores_'
'organisation_'
'data._'
'employment_'
'gas_'
'Government_'
'Diego_'
'labs_'
'term_'
'domain_'
'Gas_'
'Jet_'
'Apply_'
'fund_'
'apartments_'
'primary_'
'east_'
'Hampshire_'
'buying_'
'Court_'
'Maryland_'
'self_'
'l_'
'standards_'
'corp._'
'ventures_'
'protein_'
'means_'
'parts,_'
'Truck_'
'firm._'
'quotes_'
'Western_'
'Enterprises_'
'investing_'
'invest_'
'P.C._'
'founded_'
'even_'
'Apple_'
'research,_'
'contemporary_'
'individual_'
'combines_'
'key_'
'CA._'
'issues_'
'investments_'
'beyond._'
'placement_'
'men_'
'accountants_'
'builders_'
'Unique_'
'iOS_'
'Employee_'
'»_'
'you!_'
'american_'
'fit_'
'concrete_'
'Guide_'
'Vision_'
'Oklahoma_'
'started_'
'equipment._'
'Theatre_'
'featuring_'
'developer_'
'Black_'
'Alarm_'
'Jewelry_'
'hotels_'
'because_'
'OEM_'
'Resource_'
'Schedule_'
'Civil_'
'share_'
'indoor_'
'Salesforce_'
'websites_'
'Monitoring_'
'renowned_'
'course_'
'Vehicle_'
'25_'
'la_'
'Denver_'
'flooring_'
'Dallas_'
'world-class_'
'Ontario_'
'Channel_'
'number_'
'Town_'
'Doors_'
'Programs_'
'Award-Winning_'
'guides_'
'passionate_'
'Honda_'
'rate_'
'Miller_'
'laboratory_'
'When_'
'Flooring_'
'sign_'
'Domestic_'
'bulk_'
'running_'
'Nissan_'
'Accommodation_'
'Christian_'
'entrepreneurs_'
'warehouse_'
'lowest_'
'Gift_'
'productivity_'
'It's_'
'schedule_'
'Connect_'
'Installation_'
'pc_'
'Georgia_'
'set_'
'north_'
'doctors_'
'regulatory_'
'financing_'
'Automatic_'
'Atlanta_'
'free._'
'Mechanical_'
'shared_'
'Suppliers_'
'focusing_'
'litigation_'
'prevention_'
'do._'
'Take_'
'quality._'
'Architectural_'
'passion_'
'Commerce_'
'yoga_'
'Program_'
'Source_'
'Money_'
'Tools_'
'Pro_'
'Need_'
'Largest_'
'managers_'
'supplying_'
'sectors._'
'gold_'
'known_'
'relations_'
'licensed_'
'engineering,_'
'Tool_'
'rooms_'
'listings_'
'website._'
'incredible_'
'builder_'
'Sydney,_'
'Granite_'
'printed_'
'end-to-end_'
'Angeles,_'
'wine_'
'Boston_'
'venues_'
'Canada._'
'Detroit_'
'allows_'
'Exchange_'
'convenient_'
'Accident_'
'outcomes_'
'cloud-based_'
'south_'
'history_'
'ON_'
'houses_'
'Engineers_'
'support._'
'physicians_'
'benefit_'
'Company._'
'ford_'
'Us_'
'Zero_'
'Bangalore_'
'aspects_'
'Developers_'
'Park,_'
'Dodge_'
'devices_'
'installation_'
'sa_'
'serves_'
'culture_'
'spa_'
'co.,_'
'Hotels_'
'Aerospace_'
'developed_'
'everyday_'
'Mercedes-Benz_'
'journey_'
'Games_'
'Bank_'
'game_'
'specific_'
'Ocean_'
'engage_'
'India's_'
'architecture_'
'orders_'
'Leadership_'
'check_'
'empowering_'
'Apps_'
'platform,_'
'testing,_'
'Cyber_'
'Indiana_'
'architects_'
'commitment_'
'Wine_'
'Society_'
'page_'
'world’s_'
'Tour_'
'homes,_'
'Albany_'
'spend_'
'street_'
'banking_'
'Rehab_'
'IP_'
'anywhere_'
'leads_'
'Support,_'
'Analytics_'
'Transformation_'
'wind_'
'globally._'
'Email_'
'true_'
'Number_'
'foster_'
'pest_'
'let_'
'10_'
'minutes_'
'plant_'
'stock_'
'Brokers_'
'drivers_'
'24_'
'Spa_'
'GA_'
'ferrous_'
'Automated_'
'videos,_'
'Roofing_'
'outsourcing_'
'heavy_'
'billing_'
'northern_'
'Flexible_'
'team._'
'win_'
'facility_'
'Metro_'
'Florida._'
'ecommerce_'
'Ecommerce_'
'branding,_'
'Solicitors_'
'you'll_'
'ever_'
'Artificial_'
'turn_'
'should_'
'single_'
'Available_'
'broad_'
'nutrition_'
'board_'
'helped_'
'reviews_'
'Parking_'
'view_'
'alcohol_'
'Google_'
'contractors_'
'Contractor_'
'coatings_'
'Children_'
'veterinary_'
'Urban_'
'commerce_'
'Loss_'
'world,_'
'study_'
'driving_'
'venue_'
'photo_'
'Photography_'
'Conference_'
'biggest_'
'trained_'
'Surrey_'
'businesses,_'
'Columbus,_'
'Middle_'
'enhancing_'
'Processing_'
'life,_'
'motor_'
'put_'
'Facility_'
'adventure_'
'return_'
'Wisconsin_'
'rates_'
'engine_'
'California._'
'UAE._'
'branded_'
'Orlando_'
'~_'
'partnership_'
'Read_'
'lease_'
'Designs_'
'African_'
'success._'
'oldest_'
'Don't_'
'llc._'
'support,_'
'Supporting_'
'Bristol_'
'Rated_'
'recruiting_'
'maximize_'
'John_'
'Fund_'
'repair,_'
'Latin_'
'show_'
'beach_'
'Pediatric_'
'Own_'
'designing_'
'tickets_'
'Chrysler_'
'Concrete_'
'experiences._'
'expertise,_'
'glass_'
'teaching_'
'Dog_'
'women's_'
'produces_'
'markets_'
'George_'
'productions_'
'aerospace_'
'floor_'
'Surgery_'
'residential,_'
'Mission_'
'move_'
'pumps_'
'controls_'
'Relations_'
'Heart_'
'360_'
'loans_'
'funds_'
'servicing_'
'diverse_'
'35_'
'council_'
'Arts_'
'resources,_'
'booking_'
'restaurants_'
'..._'
'action_'
'6_'
'last_'
'Spanish_'
'Electronic_'
'Brisbane_'
'Houses_'
'wood_'
'less_'
'alarm_'
'Elite_'
'Plan_'
'Lifestyle_'
'Do_'
'screen_'
'managing_'
'items_'
'operating_'
'aviation_'
'delivery._'
'users_'
'magazine_'
'Specialty_'
'Consulting,_'
'Payment_'
'supplies._'
'economic_'
'text_'
'vehicles._'
'agile_'
'Agency,_'
'broker_'
'shoes_'
'Is_'
'Austin,_'
'Label_'
'jewellery_'
'clinic_'
'Builder_'
'replacement_'
'possible_'
'ourselves_'
'designer_'
'Price_'
'Tracking_'
'Falls,_'
'consultants,_'
'ICT_'
'signs,_'
'Leeds_'
'Vegas_'
'privately_'
'structural_'
'Windows_'
'valuable_'
'Key_'
'True_'
'Sales,_'
'member_'
'aims_'
'giving_'
'workforce_'
'engaging_'
'pay_'
'decisions_'
'price._'
'Distribution_'
'Visual_'
'12_'
'place._'
'advice,_'
'hot_'
'Hot_'
'Cold_'
'White_'
'system._'
'mobility_'
'we've_'
'generate_'
'Interiors_'
'Consumer_'
'Experienced_'
'Kent_'
'Working_'
'contractor_'
'information._'
'before_'
'Hybrid_'
'done_'
'consultation_'
'Clinics_'
'sector._'
'Reliable_'
'environment._'
'Summer_'
'array_'
'::_'
'Veterinary_'
'Mazda_'
'proudly_'
'GMC_'
'Labs_'
'plans,_'
'tips_'
'Motors_'
'cash_'
'AZ_'
'trial_'
'Australia’s_'
'hardware_'
'dream_'
'Twin_'
'sale,_'
'tours,_'
'receive_'
'pllc_'
'luxurious_'
'property,_'
'Pune,_'
'Adventure_'
'blog_'
'yacht_'
'clean_'
'Clean_'
'trucks_'
'Stone_'
'Renewable_'
'GPS_'
'west_'
'hundreds_'
'Regional_'
'technologies._'
'star_'
'locally_'
'Litigation_'
'pte_'
'rights_'
'Port_'
'Mount_'
'succeed_'
'enhance_'
'Banking_'
'Across_'
'websites,_'
'meeting_'
'Spaces_'
'(pty)_'
'administration_'
'Products,_'
'cost-effective_'
'publishing_'
'freight_'
'Party_'
'Human_'
'core_'
'Improving_'
'Change_'
'Remodeling_'
'spaces_'
'CPA_'
'accounting,_'
'Centres_'
'location_'
'Insurance,_'
'events._'
'safe,_'
'solid_'
'accessories._'
'clear_'
'Garden_'
'tools,_'
'centers_'
'stylish_'
'historic_'
'heating_'
'simply_'
'Women's_'
'exciting_'
'cover_'
'Systems,_'
'repairs_'
'Ultimate_'
'Fresh_'
'real-time_'
'valley_'
'pre-owned_'
'b.v._'
'Collection_'
'agencies_'
'Fish_'
'capture_'
'pediatric_'
'Plumbing_'
'sector_'
'easiest_'
'optimize_'
'Cell_'
'gaming_'
'region._'
'distributors_'
'Hampton_'
'Hosting_'
'dining_'
'cutting-edge_'
'Retreat_'
'cultural_'
'explore_'
'Action_'
'insight_'
'Students_'
'center,_'
'Worth_'
'regional_'
'members_'
'chevrolet_'
'Beer_'
'year_'
'use._'
'Hub_'
'Payroll_'
'freedom_'
'Enjoy_'
'current_'
'Aviation_'
'list_'
'treatments_'
'launch_'
'Designer_'
'Inspiring_'
'WA_'
'ice_'
'ski_'
'Any_'
'Telecom_'
'markets._'
'Shopping_'
'inspection_'
'analytics_'
'practical_'
'Designing_'
'Indian_'
'Consultant_'
'Cleveland_'
'publication_'
'Handling_'
'accredited_'
'Downtown_'
'courses._'
'pride_'
'signage_'
'baby_'
'days_'
'Perfect_'
'Sunshine_'
'wall_'
'recording_'
'Janitorial_'
'us._'
'provider,_'
'estate,_'
'applied_'
'Websites_'
'villas_'
'violence_'
'Signs_'
'browse_'
'funding_'
'box_'
'Class_'
'bhd_'
'7_'
'ethical_'
'Jacksonville_'
'Motion_'
'personalised_'
'Agile_'
'waste_'
'combining_'
'Billing_'
'Malaysia_'
'Heights_'
'retailers_'
'1800_'
'Subaru_'
'Warehouse_'
'needs,_'
'cheap_'
'Wide_'
'Run_'
'Designers_'
'applications,_'
'Applications_'
'artificial_'
'wear_'
'continue_'
'permanent_'
'Homepage_'
'lower_'
'case_'
'parking_'
'Alcohol_'
'designers,_'
'Portland,_'
'owners_'
'globally_'
'leverage_'
'clinics_'
'coating_'
'Sleep_'
'red_'
'Simply_'
'What_'
'comes_'
'Van_'
'Me_'
'point_'
'loss_'
'need._'
'Blog_'
'Canadian_'
'50%_'
'Early_'
'day._'
'Meet_'
'Midlands_'
'discuss_'
'Cities_'
'all-in-one_'
'model_'
'photography_'
'help._'
'Studios_'
'my_'
'overseas_'
'Law,_'
'tax,_'
'Baltimore_'
'Sussex_'
'crypto_'
'Boost_'
'taking_'
'premiere_'
'Yacht_'
'solving_'
'Graphic_'
'ingredients_'
'bar_'
'Estate,_'
'Trucks_'
'Just_'
'venture_'
'leasing_'
'Instant_'
'operated_'
'it._'
'Cost_'
'quote._'
'investors_'
'injured_'
'fight_'
'ag_'
'short_'
'Pioneer_'
'force_'
'Quick_'
'native_'
'responsive_'
'Conditioning_'
'employees_'
'engineers_'
'strive_'
'Guaranteed_'
'Movers_'
'Protect_'
'sea_'
'equity_'
'Nigeria_'
'studios_'
'maintenance,_'
'matter_'
'Driven_'
'critical_'
'cut_'
'casino_'
'Casino_'
'Planners_'
'comfort_'
'Nursing_'
'saving_'
'Nation_'
'Empower_'
'handmade_'
'information,_'
'technologies,_'
'together._'
'income_'
'electronics_'
'Therapy,_'
'positive_'
'Pharmacy_'
'strategy._'
'cards_'
'requirements_'
'Jeep_'
'total_'
'manages_'
'machines,_'
'Immigration_'
'easier_'
'operate_'
'restoration_'
'earn_'
'destination_'
'Venue_'
'academic_'
'Cedar_'
'community,_'
'Same_'
'attorney_'
'Foods_'
'Cancer_'
'goals_'
'net_'
'TN_'
'consulting,_'
'after_'
'ranging_'
'Edge_'
'automate_'
'yet_'
'Tree_'
'ages_'
'Become_'
'summer_'
'have._'
'500_'
'hours_'
'11_'
'020_'
'retreat_'
'people,_'
'fabrication_'
'fields_'
'Hotel,_'
'carry_'
'Australia,_'
'wines_'
'Original_'
'Century_'
'MRI_'
'Things_'
'leisure_'
'traffic_'
'format_'
'Clients_'
'hub_'
'Job_'
'address_'
'Spring_'
'Service._'
'record_'
'AND_'
'union_'
'rentals,_'
'Chamber_'
'existing_'
'pump_'
'process._'
'representing_'
'windows_'
'automation,_'
'grocery_'
'producer_'
'assets_'
'Inspection_'
'watch_'
'Teacher_'
'Gear_'
'Battery_'
'Manchester_'
'Indoor_'
'museum_'
'Pay_'
'America's_'
'residents_'
'Birmingham_'
'store._'
'buildings_'
'Foster_'
'it's_'
'label_'
'Head_'
'Wood_'
'Engagement_'
'lake_'
'Tools,_'
'Chinese_'
'Aircraft_'
'Components_'
'Powering_'
'Home,_'
'simple._'
'identity_'
'conference_'
'Giving_'
'Cash_'
'connected_'
'Rochester_'
'Silver_'
'Sound_'
'machining_'
'Golden_'
'Fabric_'
'black_'
'Bulk_'
'FOR_'
'sdn_'
'weekly_'
'ground_'
'Coach_'
'Cadillac_'
'roll_'
'Cycling_'
'london_'
'Line_'
'finding_'
'production,_'
'York._'
'space._'
'Heritage_'
'Accounts_'
'Out_'
'King_'
'Certification_'
'app,_'
'per_'
'Fibre_'
'document_'
'restaurant,_'
'career_'
'Craft_'
'Schools_'
'Charities_'
'PC_'
'Wales_'
'Insider_'
'IS_'
'mutual_'
'seamless_'
'visitors_'
'post_'
'Active_'
'grow._'
'implementation_'
'automatically_'
'pricing_'
'three_'
'solicitors_'
'times_'
'purpose_'
'style_'
'Brown_'
'Golf_'
'Leather_'
'Liability_'
'Kong_'
'plc_'
'feature_'
'specialists._'
'temporary_'
'Selling_'
'caring_'
'Comprehensive_'
'Scotland_'
'Reach_'
'developers,_'
'Download_'
'Alternative_'
'medium_'
'use,_'
'HOME_'
'Al_'
'face_'
'decorative_'
'protective_'
'Surface_'
'Makers_'
'adults_'
'solve_'
'NJ,_'
'NY,_'
'fluid_'
'Broadband_'
'Swiss_'
'El_'
'â_'
'Weight_'
'purchase_'
'Thermal_'
'Writing_'
'table_'
'condos_'
'fantastic_'
'Ideas_'
'Give_'
'Physicians_'
'combination_'
'partner._'
'Richmond_'
'Defense_'
'My_'
'Somerset,_'
'MA._'
'turnkey_'
'schools,_'
'beyond_'
'Intelligent_'
'Co_'
'Engineering,_'
'Rapid_'
'Impact_'
'Philippines_'
'Sutton_'
'Offices_'
'Transform_'
'Physician_'
'thinking_'
'Fabrication_'
'creation_'
'Co.,_'
'people._'
'coast_'
'Hyderabad_'
'demand_'
'markets,_'
'Michigan._'
'funds,_'
'savings_'
'Young_'
'five_'
'pharmaceutical_'
'Vacation_'
'iPhone_'
'Approved_'
'review_'
'attract_'
'Revolutionary_'
'Right_'
'Controls_'
'cities_'
'LLC,_'
'Ontario,_'
'Stay_'
'COVID-19_'
'sophisticated_'
'ROI_'
'required._'
'countries_'
'Cambridge_'
'films_'
'supports_'
'utility_'
'car,_'
'market,_'
'growth._'
'revolutionary_'
'costs._'
'difference_'
'Chemical_'
'plans_'
'NC_'
'info_'
'Landscaping_'
'Boat_'
'happy_'
'IN_'
'So_'
'understanding_'
'brands,_'
'Wayne_'
'More!_'
'Provides_'
'suit_'
'CO_'
'shows_'
'takes_'
'restaurants,_'
'Advisers_'
'Realtors_'
'memorable_'
'clothes_'
'values_'
'bay_'
'Teaching_'
'directly_'
'respected_'
'Reporting_'
'inspired_'
'levels_'
'Napa_'
'music,_'
'status_'
'Security,_'
'due_'
'Flight_'
'mechanical_'
'opportunity_'
'matters._'
'fun._'
'printers_'
'Printers_'
'They_'
'Bristol,_'
'military_'
'reducing_'
'Efficiency_'
'there_'
'VoIP_'
'Developer_'
'lets_'
'Unified_'
'9_'
'IL_'
'decades_'
'pumps,_'
'Superior_'
'loyalty_'
'quick_'
'cell_'
'Blood_'
'gain_'
'tree_'
'Olive_'
'size_'
'sizes_'
'KY_'
'designs,_'
'We've_'
'don't_'
'movement_'
'Freight_'
'advisors,_'
'Software,_'
'enabling_'
'performing_'
'Driving_'
'Disability_'
'News,_'
'conditions_'
'rich_'
'sized_'
'Sport_'
'miller_'
'among_'
'Repair,_'
'French_'
'Alberta_'
'society_'
'Want_'
'onsite_'
'Voted_'
'Lakes_'
'minds_'
'Lexus_'
'Nepal_'
'today's_'
'Large_'
'accessible_'
'employers_'
'fair_'
'Latest_'
'YOUR_'
'well._'
'Peak_'
'We’ve_'
'innovation._'
'gear_'
'gifts._'
'patented_'
'flow_'
'Zealand._'
'Engine_'
'curated_'
'talented_'
'Hospitality_'
'Cards_'
'Vehicles_'
'skills._'
'canada_'
'resorts_'
'Calgary_'
'Cremation_'
'lending_'
'long-term_'
'Body_'
'potential_'
'IT,_'
'Paint_'
'Award-winning_'
'Dentists_'
'hill_'
'shows,_'
'Reserve_'
'peace_'
'NY._'
'cards,_'
'Associates,_'
'Indianapolis_'
'streaming_'
'Wind_'
'Products._'
'Oilfield_'
'emerging_'
'europe_'
'Oak_'
'Spain_'
'Museum_'
'buyers_'
'Gifts_'
'Increase_'
'Pop_'
'stunning_'
'Solutions._'
'Coastal_'
'portfolio_'
'covers_'
'Imaging_'
'central_'
'Knowledge_'
'Diagnostic_'
'Ice_'
'Carpet_'
'emotional_'
'Voice_'
'girls_'
'Girls_'
'Tampa_'
'front_'
'independent,_'
'carbon_'
'rock_'
'healthcare,_'
'Where_'
'unparalleled_'
'got_'
'Condos_'
'Wild_'
'Flow_'
'Alabama_'
'Ireland._'
'famous_'
'Serious_'
'USB_'
'POS_'
'Idaho_'
'cars,_'
'Brooklyn_'
'Pure_'
'fashion,_'
'meets_'
'trucks,_'
'Material_'
'media,_'
'Can_'
'image_'
'workshops_'
'Milton_'
'Offers_'
'centres_'
'doors_'
'apps,_'
'request_'
'holidays_'
'charging_'
'cryptocurrency_'
'Vermont_'
'merchant_'
'register_'
'deep_'
'Bakery_'
'Kia_'
'Brunswick_'
'Smith_'
'MD_'
'DNA_'
'Forest_'
'Networks_'
'srl_'
'Plant_'
'actionable_'
'collaboration_'
'hearing_'
'Hearing_'
'Autism_'
'Plastics_'
'German_'
'promote_'
'esports_'
'Atlas_'
'Shower_'
'renewable_'
'Spokane_'
'teeth_'
'â_'
'Mutual_'
'Drilling_'
'loved_'
'Montessori_'
'integration,_'
'busy_'
'LNG_'
'Sciences_'
'Davis_'
'fabrics_'
'lasting_'
'performance._'
'Scottsdale_'
'Phoenix,_'
'dance_'
'Classical_'
'Revenue_'
'emphasis_'
'cold_'
'mining_'
'integrate_'
'Oracle_'
'Let's_'
'high-quality,_'
'boost_'
'contracting_'
'Contracting_'
'Focus_'
'close_'
'that's_'
'awareness_'
'abuse_'
'Retirement_'
'ideal_'
'faster_'
'Marketplace_'
'liquid_'
'camp_'
'Jewish_'
'electricity_'
'Ireland's_'
'marketplace_'
'web-based_'
'expertise._'
'towards_'
'Lease_'
'Flowers_'
'supplies,_'
'Field_'
'motors_'
'Charlotte_'
'County._'
'Arizona_'
'Venues_'
'monitors_'
'audit_'
'Built_'
'Income_'
'project._'
'Barcelona_'
'tooling_'
'criminal_'
'insurance,_'
'vacation_'
'destinations_'
'changing_'
'America,_'
'lawyer_'
'100+_'
'Rhode_'
'parents_'
'Quote_'
'Destination_'
'maintain_'
'Cryptocurrency_'
'relevant_'
'vacuum_'
'agent_'
'Agency._'
'foods_'
'Dubai,_'
'Entrepreneurs_'
'physician_'
'It’s_'
'prevent_'
'integrates_'
'scientific_'
'Davies_'
'Lincoln_'
'workwear_'
'pets_'
'globe._'
'gourmet_'
'Meat_'
'Safe_'
'village_'
'Drop_'
'Speed_'
'Island,_'
'top-notch_'
'provider._'
'User_'
'stage_'
'techniques_'
'Clinical_'
'advance_'
'Advance_'
'membership_'
'that’s_'
'in-house_'
'motion_'
'basketball_'
'translation_'
'qualified_'
'power,_'
'Premiere_'
'pioneer_'
'16_'
'p.a._'
'Eastern_'
'Equipment,_'
'partners,_'
'Equity_'
'Turf_'
'Organization_'
'Portfolio_'
'sure_'
'VIP_'
'educators_'
'Films_'
'Hope_'
'Riverside_'
'acquisition_'
'links_'
'telephone_'
'lot_'
'Italy_'
'Timber_'
'showroom_'
'Dedicated_'
'diversified_'
'boat_'
'Portable_'
'startups,_'
'WE_'
'Centers_'
'City._'
'Occupational_'
'Device_'
'Biotech_'
'Federal_'
'Ram_'
'Southeast_'
'flash_'
'Chemicals_'
'Sri_'
'Window_'
'simple,_'
'Strategies_'
'Midwest_'
'Visa_'
'hotels,_'
'advisers_'
'dealing_'
'communities._'
'Men_'
'makers_'
'Printer_'
'manufactured_'
'million_'
'teacher_'
'Excellence_'
'consumers_'
'response_'
'unmatched_'
'sizes._'
'Integration_'
'conditioning_'
'lives._'
'internationally_'
'theatre_'
'visiting_'
'Room_'
'Photo_'
'execute_'
'Animation_'
'Amazing_'
'high-tech_'
'workplace_'
'Touch_'
'Rapids_'
'Dentist_'
'window_'
'operational_'
'work._'
'aircraft_'
'ensures_'
'Compression_'
'profit_'
'Eagle_'
'Inn_'
'Recycling_'
'fish_'
'cycle_'
'robotics_'
'costs_'
'join_'
'Technologies,_'
'coaching,_'
'legacy_'
'Legacy_'
'Clear_'
'theme_'
'Urgent_'
'delicious_'
'Delicious_'
'professionals,_'
'Fleet_'
'Well_'
'medicine_'
'Bible_'
'iPhone,_'
'Android,_'
'white_'
'Europe._'
'clothing,_'
'janitorial_'
'Listings_'
'Louisville_'
'accurate_'
'forget_'
'delivery,_'
'We'll_'
'beautiful,_'
'Housing_'
'purchasing_'
'guest_'
'2009._'
'on-demand_'
'Edinburgh_'
'furniture,_'
'Lee_'
'Lift_'
'Screen_'
'Database_'
'treat_'
'Part_'
'program._'
'brewery_'
'TX._'
'protecting_'
'Year_'
'money._'
'homes._'
'way._'
'Automate_'
'Jersey._'
'Youth_'
'color_'
'on._'
'Here_'
'Limousine_'
'fort_'
'Beach,_'
'E_'
'Value_'
'Know_'
'pizza_'
'Editing_'
'stainless_'
'store,_'
'Tracker_'
'Also_'
'garden_'
'covered_'
'Personalized_'
'trailer_'
'Licensed_'
'deal_'
'Backup_'
'niche_'
'unique,_'
'offered_'
'Europe,_'
'container_'
'incorporated_'
'Sensors_'
'oilfield_'
'Men's_'
'Franchise_'
'creative,_'
'Yorkshire_'
'writing_'
'13_'
'northwest_'
'meetings_'
'Holidays_'
'Together_'
'Detection_'
'coastal_'
'classes,_'
'conservation_'
'faster._'
'Corp_'
'having_'
'decisions._'
'NSW_'
'World._'
'Flemington_'
'tile,_'
'Visa,_'
'SMS_'
'Uber_'
'entrepreneurial_'
'method_'
'Aluminum_'
'Boys_'
'Revolution_'
'Super_'
'tickets,_'
'Masters_'
'several_'
'Finding_'
'satisfaction_'
'elite_'
'Rail_'
'producers_'
'artists,_'
'detailed_'
'vast_'
'activity_'
'decor_'
'paid_'
'Eugene_'
'smarter_'
'voluntary_'
'middle_'
'specifically_'
'Switzerland_'
'screening_'
'sale._'
'tackle_'
'individuals,_'
'Models_'
'sense_'
'School,_'
'consultancy,_'
'Traffic_'
'Not_'
'road_'
'Native_'
'Kentucky_'
'Bridges_'
'Ready_'
'accelerate_'
'answer_'
'presence_'
'Athletic_'
'Flood_'
'Printed_'
'corporate,_'
'architecture,_'
'platforms,_'
'Doctors_'
'utilizes_'
'rates._'
'Manhattan_'
'MLS_'
'me_'
'Image_'
'easy-to-use_'
'Dining_'
'industry,_'
'jet_'
'welcome_'
'innovations_'
'Placement_'
'Amazon_'
'Sussex,_'
'numbers_'
'restore_'
'Daily_'
'feed_'
'order._'
'Translation_'
'in,_'
'Base_'
'Merchant_'
'Encore_'
'Robotic_'
'paint_'
'brokerage_'
'Skilled_'
'parts._'
'Machines_'
'Gateway_'
'database_'
'smith_'
'OR_'
'perform_'
'taste_'
'Review_'
'proprietary_'
'battery_'
'About_'
'minutes._'
'Bluetooth_'
'future._'
'Works_'
'Design._'
'stone_'
'Matrix_'
'Skin_'
'seniors_'
'Place_'
'salon_'
'Structural_'
'performance,_'
'Mumbai,_'
'Laboratory_'
'Manage_'
'Mystery_'
'code_'
'(_'
'lawn_'
'heat_'
'Festival_'
'Volvo_'
'Responsive_'
'Asian_'
'surface_'
'Dermatology_'
'map_'
'Phones_'
'Japanese_'
'Audi_'
'asia_'
'one-stop_'
'relationship_'
'Marketers_'
'Crash_'
'Passive_'
'nation_'
'MS_'
'content._'
'Easily_'
'projects,_'
'gap_'
'family-owned_'
'pieces_'
'injury,_'
'Classes_'
'Now!_'
'Intelligence,_'
'profiles_'
'customised_'
'Chiropractor_'
'grand_'
'start-up_'
'Maximize_'
'identify_'
'four_'
'Fruit_'
'Jewellers_'
'Set_'
'please_'
'sustainability_'
'Locally_'
'crafted_'
'manufacturer,_'
'install_'
'diagnostics_'
'Including_'
'therapies_'
'Providers_'
'Thailand_'
'East._'
'Reduce_'
'completely_'
'exercise_'
'target_'
'Hands_'
'promoting_'
'relationships_'
'collect_'
'laser_'
'hybrid_'
'powder_'
'catch_'
'progressive_'
'engineered_'
'broadband_'
'degree_'
'18_'
'Rates_'
'Authorized_'
'Training,_'
'Offer_'
'secured_'
'Export_'
'Savings_'
'23_'
'Share_'
'collective_'
'mail_'
'apartment_'
'app._'
'cloud._'
'nyc_'
'Gravity_'
'scale._'
'Protecting_'
'owners._'
'spectrum_'
'Disease_'
'ltd)_'
'transparency_'
'Other_'
'journeys_'
'East,_'
'increasing_'
'Growing_'
'defense_'
'combined_'
'houses,_'
'300_'
'control,_'
'groups._'
'clients’_'
'leave_'
'experts,_'
'conversion_'
'graphics_'
'answering_'
'offshore_'
'Yachts_'
'planet_'
'Protein_'
'Benefits_'
'Cables_'
'Lancaster,_'
'almost_'
'Group._'
'Greece_'
'Acquisition_'
'devices._'
'Texas._'
'Locum_'
'Doctor_'
'apply_'
'EMS_'
'assistance_'
'collection,_'
'Quotes_'
'AR_'
'Bangalore,_'
'swimming_'
'unit_'
'Short_'
'Term_'
'Complex_'
'connectivity_'
'disabilities_'
'Partner._'
'Course_'
'logistics,_'
'behind_'
'Nantucket_'
'Mojo_'
'longer_'
'Contemporary_'
'Baton_'
'massage_'
'Wellbeing_'
'healing_'
'level._'
'Delivered_'
'institution_'
'think_'
'important_'
'Old_'
'Chicago's_'
'Center._'
'condos,_'
'Cambodia_'
'jobs._'
'nonprofit_'
'occupational_'
'Through_'
'gym_'
'Bike_'
'Preferred_'
'storage,_'
'Chester_'
'party_'
'Diego,_'
'dynamics_'
'Telephone_'
'africa_'
'del_'
'groups_'
'Career_'
'timber_'
'prices,_'
'bright_'
'Workforce_'
'Montreal_'
'area,_'
'AWS_'
'one-stop-shop_'
'cross_'
'Cross_'
'Area._'
'style._'
'effective,_'
'sourced_'
'pharmacy_'
'specialised_'
'learning,_'
'Cleaning,_'
'backed_'
'Jeep,_'
'Asia._'
'hills_'
'volume_'
'analytical_'
'Micro_'
'Globe_'
'Lanka_'
'Vietnam_'
'payments_'
'immigration_'
'Clothes_'
'Damage_'
'Primary_'
'served_'
'GROUP_'
'Uptown_'
'Heartland_'
'curriculum_'
'tours._'
'you,_'
'selected_'
'beachfront_'
'AV_'
'retailer_'
'Behavior_'
'earned_'
'Rapids,_'
'Annapolis_'
'Send_'
'Minneapolis_'
'healthier_'
'empowers_'
'best._'
'distribution._'
'airline_'
'Devon_'
'during_'
'Personalised_'
'brain_'
'Link_'
'Net_'
'M&A_'
'integrator_'
'factory_'
'productivity._'
'social,_'
'Cable_'
'Kingdom_'
'concepts_'
'Concepts_'
'higher_'
'education._'
'Developing_'
'york_'
'brand._'
'Insights_'
'ocean_'
'region_'
'capabilities_'
'transforming_'
'Walnut_'
'patients._'
'client’s_'
'doors,_'
'formed_'
'Options_'
'maps_'
'Journey_'
'Lessons_'
'shower_'
'menu_'
'corp_'
'Watch_'
'books_'
'States._'
'Coating_'
'heritage_'
'Denver,_'
'innovate_'
'create,_'
'makeup_'
'Authentic_'
'Suite_'
'further_'
'sport_'
'LA_'
'Royal_'
'These_'
'devoted_'
'facilities._'
'preparation_'
'starting_'
'Investments_'
'Shirts_'
'secure,_'
'Expertise_'
'Boards_'
'Results_'
'grown_'
'century_'
'MTSS_'
'sustainably_'
'Seafood_'
'beer_'
'handcrafted_'
'break_'
'risks_'
'prints_'
'few_'
'shape_'
'automatic_'
'ireland_'
'Prevention_'
'peak_'
'auditing_'
'innovation,_'
'nearly_'
'printer_'
'consistent_'
'lenders_'
'rehab_'
'conveyor_'
'Against_'
'Media,_'
'ivf_'
'PA._'
'tell_'
'dealer,_'
'complimentary_'
'soft_'
'Dairy_'
'Compensation_'
'Canada's_'
'cremation_'
'interested_'
'USA,_'
'shuttle_'
'Choice_'
'Jose_'
'machines_'
'read_'
'Orthopedic_'
'@_'
'Melbourne,_'
'tops,_'
'Productions_'
'Logistics,_'
'whose_'
'tracking,_'
'requirements._'
'Fishing_'
'ability_'
'franchise_'
'assurance_'
'disposal_'
'eco-friendly_'
'compassionate_'
'navigate_'
'driver_'
'Reality_'
'claim_'
'behavioral_'
'kind_'
'leaders._'
'Township_'
'beauty,_'
'EV_'
'Automotive_'
'Step_'
'ESG_'
'assemblies_'
'Atlanta,_'
'Houston,_'
'strategies._'
'Agricultural_'
'NH_'
'cooling_'
'hearts_'
'agricultural_'
'messages_'
'Christmas_'
'signs_'
'Selection_'
'London-based_'
'comfortable_'
'CCTV_'
'stand_'
'carpet_'
'messaging_'
'Track_'
'Booking_'
'district_'
'Two_'
'economy._'
'ergonomic_'
'Back_'
'teens_'
'voices_'
'sharing_'
'affected_'
'Exclusive_'
'second_'
'Whisky_'
'MO_'
'2000_'
'sets_'
'installation._'
'Japan_'
'Today._'
'doing_'
'environments._'
'Mortgages_'
'Iowa_'
'promotions_'
'Redwood_'
'Sector_'
'Sterling_'
'returns_'
'consultancy._'
'1996_'
'Equipments_'
'optimum_'
'operates_'
'craft_'
'hiring_'
'serious_'
'Conversion_'
'reality_'
'members._'
'head_'
'Portal_'
'Johnson_'
'allow_'
'Police_'
'Meets_'
'scalable_'
'drives_'
'Response_'
'co.,ltd_'
'Light,_'
'ELT_'
'Funding_'
'pure_'
'display_'
'county_'
'facilitate_'
'health._'
'lawyers._'
'Computers_'
'!_'
'compliant_'
'tools._'
'consultant_'
'signature_'
'manufacturing,_'
'new,_'
'promotes_'
'exquisite_'
'Finest_'
'Halloween_'
'builds_'
'stories_'
'Supplies,_'
'non_'
'Dutch_'
'inspiring_'
'women._'
'Assisted_'
'favorite_'
'customers’_'
'intuitive_'
'down_'
'charge_'
'form_'
'Children's_'
'Resolution_'
'✅_'
'Finder_'
'were_'
'protection._'
'optimization,_'
'Powered_'
'Publications_'
'Staff_'
'us!_'
'Blockchain_'
'Hall_'
'Gulf_'
'prime_'
'Ranch_'
'dry_'
'Highly_'
'Columbus_'
'River_'
'Fit_'
'guarantee_'
'spray_'
'migration_'
'SMEs_'
'League_'
'them._'
'gives_'
'Columbia_'
'Desk_'
'practices_'
'Baker_'
'NCR_'
'Prime_'
'rail_'
'Harley-Davidson_'
'camps,_'
'tough_'
'school,_'
'law._'
'carries_'
'Lebanon_'
'Activity_'
'Fully_'
'Crystal_'
'Manhattan,_'
'Machinery_'
'workout_'
'Communities_'
'merchandise_'
'BC_'
'easy._'
'especially_'
'advertising,_'
'broadcasting_'
'Southwest_'
'methods_'
'Christ_'
'graphics,_'
'cases_'
'gallery_'
'Educating_'
'developments_'
'Robotics_'
'childhood_'
'linen_'
'Jay_'
'Dress_'
'cottages_'
'training._'
'Informatics_'
'sweet_'
'retail,_'
'found_'
'BIM_'
'Pacific_'
'whether_'
'conversions_'
'brick,_'
'Hudson_'
'Trekking_'
'Mountain_'
'Crane_'
'Nonprofit_'
'Grant_'
'Doncaster_'
'Guard_'
'chocolate_'
'Coding_'
'landscaping_'
'Networking_'
'Guatemala_'
'Jakarta_'
'fishing_'
'Payable_'
'Screws_'
'Paul_'
'Only_'
'Acrylic_'
'Watson_'
'ones_'
'analysis._'
'Smarter_'
'va_'
'Outsource_'
'selection,_'
'workflow_'
'Enabling_'
'transportation,_'
'warehousing_'
'treatments._'
'Whatever_'
'Bringing_'
'Ad_'
'Commercial,_'
'Health,_'
'logo_'
'Cheap_'
'challenges._'
'procurement_'
'talk_'
'HIPAA_'
'Jewellery_'
'OB/GYN_'
'questions_'
'formation_'
'Financing_'
'ML_'
'Managers_'
'work,_'
'airport_'
'Depot_'
'visibility_'
'away_'
'sell,_'
'buy,_'
'hands_'
'friendly,_'
'cosmetic_'
'dentistry_'
'Implants_'
'imaging_'
'romantic_'
'Auckland_'
'creativity,_'
'bills_'
'Rose_'
'phoenix_'
'Infrastructure_'
'land,_'
'tech,_'
'Chevy_'
'AL_'
'nation's_'
'R&D_'
'Advisors,_'
'production._'
'weight_'
'That's_'
'then_'
'Road_'
'discount_'
'led_'
'including:_'
'Ski_'
'Table_'
'hosting,_'
'2021_'
'combine_'
'Marketing._'
'challenge_'
'online,_'
'families,_'
'customizable_'
'holistic_'
'massage,_'
'town_'
'blood_'
'Lives_'
'audience_'
'today’s_'
'Canada,_'
'Journeys_'
'tailor_'
'Strategy,_'
'tool._'
'Manager_'
'Matters_'
'high-end_'
'Bitcoin_'
'intent_'
'grade_'
'24/7,_'
'step_'
'sensor_'
'Ideal_'
'weddings,_'
'Into_'
'Castle_'
'functional_'
'Bars_'
'Gluten_'
'cables_'
'Homes,_'
'homeowners_'
'sydney_'
'Unlimited_'
'continuing_'
'Allied_'
'Bar_'
'hr_'
'Adelaide_'
'Decorative_'
'Operations_'
'Triple_'
'VR_'
'services!_'
'PPC_'
'Inc.,_'
'Fox_'
'books,_'
'Fence_'
'expand_'
'confident_'
'Des_'
'Activities_'
'currently_'
'Satellite_'
'touch._'
'repairs._'
'Dialer_'
'CRM,_'
'teams._'
'WI_'
'passenger_'
'operator_'
'pacific_'
'banks_'
'network,_'
'infrastructure,_'
'Mining_'
'Online,_'
'P.A._'
'satellite_'
'Rubber_'
'Ground_'
'above_'
'journal_'
'Deal_'
'beginning_'
'unforgettable_'
'tank_'
'select_'
'needed_'
'granite_'
'millions_'
'Dynamic_'
'greatest_'
'efficient,_'
'kitchens_'
'UV_'
'capacity_'
'united_'
'water,_'
'institutional_'
'Charlotte,_'
'bold_'
'Partnership_'
'florida_'
'brewing_'
'chartered_'
'pick_'
'locations._'
'Speech_'
'mental_'
'1999,_'
'adventures_'
'travellers_'
'Fastest_'
'engaged_'
'customers,_'
'aspect_'
'Pakistan_'
'Specialties_'
'NV_'
'volkswagen_'
'MN._'
'Minneapolis,_'
'Times_'
'truly_'
'Newton_'
'Federation_'
'Wastewater_'
'Outback_'
'Venture_'
'collaborative_'
'staff,_'
'Renovation_'
'common_'
'Meetings,_'
'visa_'
'Trial_'
'convention_'
'tourism_'
'site._'
'Days_'
'efficiently_'
'align_'
'inside_'
'super_'
'professional,_'
'everyone._'
'recover_'
'lost_'
'courses,_'
'Connectivity_'
'patients,_'
'licensing_'
'Concert_'
'lines_'
'names_'
'anyone_'
'Virginia._'
'photography,_'
'advertising._'
'agents,_'
'far_'
'inclusive_'
'overcome_'
'more,_'
'states_'
'workers_'
'we'll_'
'building,_'
'World’s_'
'ensuring_'
'automotive,_'
'ideas._'
'knowledge,_'
'Outsourced_'
'payroll_'
'Waterfront_'
'reliable,_'
'divorce_'
'stands_'
'(formerly_'
'john_'
'compensation_'
'pressure_'
'Posture_'
'Pressure_'
'Tulsa_'
'consult_'
'bmw_'
'photos,_'
'Military_'
'Coatings_'
'Sexual_'
'surveying_'
'america_'
'wearable_'
'tailor-made_'
'printing,_'
'Devon,_'
'PA,_'
'Icon_'
'optimization_'
'we’re_'
'link_'
'phone,_'
'Carmel_'
'Betting_'
'Recording_'
'Childhood_'
'Measurement_'
'reservation_'
'Boston,_'
'now,_'
'Amish_'
'Dentistry_'
'ease_'
'rewards_'
'federal_'
'seasoned_'
'studies_'
'Gaming_'
'MSP_'
'Sea_'
'Leeds._'
'casual_'
'Loan_'
'analysis,_'
'Thinking_'
'lessons_'
'Ages_'
'bathroom_'
'innovator_'
'organizations._'
'covered._'
'etc_'
'children._'
'Indonesia_'
'documentation_'
'channel_'
'free!_'
'Footwear_'
'Howard_'
'university_'
'Advisor_'
'thought_'
'writers_'
'Planet_'
'solution,_'
'Guest_'
'Springs_'
'mind_'
'wellbeing_'
'hand_'
'Williams_'
'moments_'
'modern,_'
'mentors_'
'scheduling,_'
'Leaf_'
'y_'
'ingredients._'
'Renowned_'
'Skills_'
'Lettings_'
'Cornwall_'
'Adams_'
'On-demand_'
'gateway_'
'cleaning,_'
'easier._'
'broadcast_'
'alliance_'
'Five_'
'resorts,_'
'shirts,_'
'Everything_'
'Compass_'
'transition_'
'merchants_'
'Sourcing_'
'rare_'
'SME_'
'Deliver_'
'Effective_'
'Lean_'
'Productivity_'
'Genuine_'
'winery_'
'streamline_'
'RTI_'
'saves_'
'improves_'
'tradition_'
'Brewery_'
'threats_'
'Travelling_'
'discounts_'
'love._'
'Attractions_'
'printing._'
'Format_'
'Fiber_'
'Cincinnati_'
'Dream_'
'Having_'
'Fair_'
'it’s_'
'Corp._'
'1st_'
'Goods_'
'Fraud_'
'Southeast._'
'Rescue_'
'PCB_'
'constant_'
'innovative,_'
'30%_'
'Pump_'
'photos_'
'RV_'
'ranges_'
'200_'
'turf_'
'Rehabilitation_'
'iOS,_'
'Czech_'
'guidance_'
'wastewater_'
'simulation_'
'Trivandrum_'
'Lowest_'
'once_'
'Weddings_'
'Manufactured_'
'cadillac_'
'Led_'
'implement_'
'finance,_'
'Phillips_'
'Inspired_'
'2018_'
'acoustic_'
'Clubs_'
'understands_'
'steel,_'
'funeral_'
'connections_'
'Iron_'
'Bridge_'
'family-friendly_'
'Fly_'
'Cyprus_'
'horse_'
'Convention_'
'snack_'
'Snack_'
'collections_'
'product._'
'raw_'
'Have_'
'matching_'
'trailers_'
'nonprofits_'
'Pittsburgh_'
'Paris_'
'Florida,_'
'Workflow_'
'offer._'
'Orthopaedic_'
'surgical_'
'footwear_'
'Hygiene_'
'Maritime_'
'Bend_'
'advocate_'
'bus_'
'Hampshire._'
'charter_'
'path_'
'therapy,_'
'household_'
'safely_'
'Specialising_'
'lettings_'
'luggage_'
'Opportunities_'
'Express_'
'vibrant_'
'Thurber_'
'impact._'
'extraordinary_'
'analytics,_'
'Saving_'
'better._'
'DFW_'
'reference_'
'essential_'
'a/s_'
'series_'
'Camping_'
'behaviour_'
'Shoes_'
'ab_'
'instantly_'
'Lights_'
'materials._'
'sourcing_'
'noise_'
'thermal_'
'microwave_'
'Group:_'
'Stamford_'
'telecoms_'
'Collins_'
'centers,_'
'optical_'
'Dr_'
'nature_'
'can't_'
'Kinship_'
'Keep_'
'office,_'
'Cincinnati,_'
'bars_'
'rest_'
'Drupal_'
'placing_'
'levels._'
'Technology,_'
'assisting_'
'Signage_'
'Carbon_'
'oak_'
'Border_'
'cool_'
'Bear_'
'careers_'
'diagnostic_'
'Physiotherapy_'
'rescue_'
'vinyl_'
'coding_'
'Vail_'
'interface_'
'Dallas,_'
'contacts_'
'Chevrolet,_'
'displays,_'
'Pennsylvania_'
'fun,_'
'Floor_'
'nv_'
'Supermarket_'
'Medication_'
'plans._'
'experiences,_'
'moves_'
'There_'
'exterior_'
'Real-time_'
'Sioux_'
'attractions,_'
'SD_'
'manner._'
'panel_'
'pharma_'
'sons_'
'Shopify_'
'television_'
'America._'
'Behavioral_'
'Rover_'
'connection_'
'Reviews_'
'needs!_'
'Zumbrota_'
'refugees_'
'Oregon,_'
'24/7._'
'Invest_'
'Birmingham,_'
'een_'
'Costa_'
'shipping._'
'cars._'
'foreign_'
'Voluntary_'
'progress_'
'Keystone_'
'readers_'
'us,_'
'Stage_'
'annual_'
'interiors_'
'engineers,_'
'registered_'
'varied_'
'smart,_'
'idea_'
'Idea_'
'patio_'
'Mexico_'
'synergy_'
'detection_'
'Chicago,_'
'I.T._'
'fruit_'
'infusion_'
'transforms_'
'rooms,_'
'Missouri_'
'refurbished_'
'art,_'
'Lancaster_'
'Optimal_'
'FUE_'
'synthetic_'
'man_'
'proteins_'
'average_'
'Driver_'
'supplements_'
'bottom_'
'advice._'
'week_'
'privacy_'
'interesting_'
'additional_'
'Liquid_'
'cruise_'
'athletic_'
'jewelers_'
'lifting_'
'Orleans_'
'Oils_'
'Supplier,_'
'Thai_'
'Stainless_'
'Essex_'
'abroad._'
'complexity_'
'Arlington,_'
'Trademark_'
'side_'
'movers_'
'Canton_'
'football_'
'Football_'
'Composite_'
'accident_'
'targeted_'
'operations,_'
'branch_'
'Moore_'
'Biotechnology_'
'Signature_'
'Proven_'
'families._'
'Mansfield_'
'european_'
'Interface_'
'policy_'
'exploration_'
'Keynes_'
'charities_'
'Turbine_'
'Bangkok,_'
'Anywhere_'
'locations,_'
'Automation,_'
'oy_'
'Care,_'
'construction._'
'Burke_'
'favourite_'
'Berkeley_'
'recognized_'
'Serviced_'
'Authorised_'
'Carolina,_'
'resolution_'
'Alpha_'
'goods_'
'ideas,_'
'surgery,_'
'Rolex_'
'US._'
'Roll_'
'automated_'
'optimization._'
'Dealers_'
'Bosch_'
'waiting_'
'cabinet_'
'in-depth_'
'Reviews,_'
'addiction_'
'Udaipur_'
'Augmented_'
'yourself_'
'subscription_'
'intelligence,_'
'change._'
'Responsible_'
'safety,_'
'Ft._'
'Boise_'
'entry_'
'large-scale_'
'fan_'
'tape_'
'Solid_'
'team,_'
'follow_'
'America’s_'
'Culture_'
'Pilot_'
'LLC._'
'able_'
'England,_'
'corrosion_'
'Beautiful_'
'models,_'
'harness_'
'networking_'
'paper_'
'games._'
'magic_'
'HK_'
'measurable_'
'startup_'
'Jersey's_'
'Texas,_'
'McAllen_'
'Imagine_'
'Ohio._'
'Monarch_'
'supplier._'
'Goa_'
'Rigging_'
'Utility_'
'Savannah_'
'di_'
'D_'
'Camps_'
'Bottle_'
'Construction,_'
'exceeding_'
'Nursery_'
'beverage,_'
'SUVs_'
'Roswell_'
'Decor_'
'base_'
'hydraulic_'
'auctions_'
'telecom_'
'cable_'
'Iowa._'
'Charles_'
'crystal_'
'website,_'
'Juniper_'
'NO_'
'strengthen_'
'Interesting_'
'Corporate,_'
'Shark_'
'nationwide._'
'Toilet_'
'trends_'
'developmental_'
'Farms_'
'assisted_'
'food,_'
'Professional,_'
'milling_'
'Implementation_'
'build,_'
'certification_'
'â¢_'
'penetration_'
'Stories_'
'payments,_'
'Harrogate_'
'Coast._'
'Applied_'
'Prairie_'
'Factory_'
'legendary_'
'reward_'
'Title_'
'Fiberglass_'
'Data,_'
'Garage_'
'Seattle_'
'W._'
'SC_'
'represents_'
'Injection_'
'Payments_'
'plumbing_'
'%_'
'Ark_'
'Case_'
'articles_'
'places_'
'transparent_'
'chat_'
'Chat_'
'Startup_'
'trainers_'
'maximum_'
'Funeral_'
'Suffolk_'
'Department_'
'installs_'
'Martin_'
'Shuttle_'
'Cornwall,_'
'industrial,_'
'aesthetic_'
'Linen_'
'Portuguese_'
'Cognitive_'
'Signs,_'
'VOIP_'
'Egypt_'
'Addiction_'
'Cameras_'
'Java_'
'sites_'
'RO_'
'forefront_'
'i_'
'Graduation_'
'phones,_'
'Cranes_'
'Staffing,_'
'Friends_'
'Dementia_'
'atlas_'
'RI_'
'CNG_'
'Myers,_'
'CPR_'
'Shanghai_'
'Starts_'
'Always_'
'Noida,_'
'Movement_'
'Connected_'
'mountain_'
'bags_'
'GIS_'
'CSR_'
'streams_'
'Fancy_'
'Molded_'
'Glasgow_'
'Cottages_'
'Phuket_'
'Bounce_'
'Horizon_'
'Sculpture_'
'pathology_'
'dermatology_'
'Break_'
'RFID_'
'BV_'
'evenimente_'
'actuarial_'
'Myrtle_'
'Indochina_'
'Hawaii_'
'Component_'
'Prestige_'
'XRF_'
'Crewkerne,_'
'Taking_'
'concierge_'
'freelancers_'
'Linear_'
'Belt_'
'ECE_'
'Testing,_'
'Scale_'
'crash_'
'leveraging_'
'talks_'
'assistant_'
'Fraser_'
'video._'
'bridge_'
'Carrier_'
'necessary_'
'illustration_'
'portfolios_'
'davis_'
'claims_'
'Specialized_'
'transformation._'
's.a._'
'timeless_'
'brown_'
'Creek,_'
'Chiropractic_'
'application._'
'Add_'
'Variety_'
'nearest_'
'office._'
'Accounting,_'
'Ballet_'
'Georgia._'
'ad_'
'exceed_'
'graduate_'
'mobile,_'
'resolve_'
'Aisle_'
'colors_'
'Wear_'
'oxygen_'
'childcare_'
'Berkshire_'
'roles_'
'Atlanta._'
'developers._'
'engagement,_'
'leads,_'
'pragmatic_'
'Manchester._'
'rehabilitation_'
'1993._'
'Caring_'
'NHS_'
'parties_'
'birthday_'
'Buyers_'
'rely_'
'Villa_'
'offline_'
'inbound_'
'customers'_'
'affordable,_'
'headquartered_'
'humanitarian_'
'After_'
'Advocacy_'
'competitors_'
'thrive_'
'Finishing_'
'Duty_'
'dispensing_'
'washing_'
'go._'
'fellow_'
'Carolina_'
'XML_'
'structured_'
'Catch_'
'fusion_'
'Fluid_'
'Needs_'
'Energy,_'
'Mercedes_'
'Ring_'
'sciences_'
'India’s_'
'mazda_'
'beans_'
'tangible_'
'ambitious_'
'Cannon_'
'AL._'
'Thompson_'
'easy,_'
'ongoing_'
'tablets_'
'Beattie_'
'Linux_'
'Tips_'
'edit_'
'spectra_'
'Performing_'
'Artists,_'
'floral_'
'containers,_'
'lights_'
'arrangements_'
'Industry,_'
'Reserves_'
'Due_'
'Paper_'
'Or_'
'title_'
'SharePoint_'
'send_'
'Collective_'
'Writers_'
'Livestock_'
'convenience_'
'wash_'
'personnel_'
'Hillsong_'
'Hampshire,_'
'pioneering_'
'diagnosis_'
'Transforming_'
'money,_'
'All-in-One_'
'Audience_'
'Reporting,_'
'Asia,_'
'efficiency._'
'Criminal_'
'constantly_'
'villas,_'
'Thailand,_'
'liability,_'
'Enquire_'
'Ads_'
'Jamaica_'
'Control,_'
'Business,_'
'horizon_'
'Rural_'
'Search,_'
'optimized_'
'offices,_'
'Answering_'
'treats_'
'subsea_'
'telecommunications_'
'Sale,_'
'Agents,_'
'Cumbria_'
'Initiative_'
'Successful_'
'Britain_'
'Painting_'
'Decorating_'
'simplify_'
'Bridal_'
'machine,_'
'davies_'
'contracts_'
'lease._'
'Leasing_'
'elevate_'
'vacancies_'
'Register_'
'Pennsylvania._'
'Singapore._'
'Eco_'
'immersive_'
'campaigns._'
'Pvt._'
'hassle-free_'
'accounts_'
'uniforms_'
'Angle_'
'Systems._'
'2001._'
'fans_'
'displays_'
'Multimedia_'
'Detroit,_'
'approach._'
'Moines_'
'Fast,_'
'extreme_'
'independently_'
'expert._'
'iPad_'
'turnaround_'
'K_'
'trendy_'
'swimwear_'
'suites,_'
'include:_'
'fee_'
'competitors._'
'retain_'
'forward-thinking_'
'old_'
'organisations._'
'mining,_'
'vendor_'
'Evans_'
'Philippines._'
'freelance_'
'consultations._'
'assistance,_'
'Ottawa,_'
'Herbal_'
'library_'
'Wisconsin._'
'Experiences_'
'pioneered_'
'Trips_'
'Beyond_'
'nearby_'
'Ace_'
'insights._'
'Valet_'
'recording,_'
'role_'
'API_'
'zero_'
'full-service,_'
'you?_'
'frame_'
'Artisan_'
'Kitchens_'
'Bath_'
'Match_'
'well-being_'
'Pipeline_'
'B.V._'
'six_'
'christian_'
'2004._'
'opportunities._'
'pros_'
'programs._'
'riverside_'
'Muscle_'
'Gun_'
'Tax,_'
'G&G_'
'Hill,_'
'knowledgeable_'
'purchase._'
'BEST_'
'thoughtful_'
'budget,_'
'allowing_'
'individualized_'
'Prices_'
'rigorous_'
'indian_'
'island_'
'prepared_'
'unexpected_'
'Reno_'
'Conveniently_'
'Plymouth,_'
'change,_'
'equipped_'
'chrysler_'
'dodge_'
'dealership,_'
'MA,_'
'candidates._'
'students,_'
'scientists_'
'LC_'
'Crafting_'
'micro_'
'Guarantee_'
'Travels_'
'►_'
'shutters_'
'try_'
'function_'
'crisis_'
'best-in-class_'
'Guided_'
'hidden_'
'fees._'
'bureau_'
'value,_'
'litigation,_'
'nursery_'
'Buy,_'
'instruction_'
'media._'
'Canine_'
'Primavera_'
'metro_'
'showcase_'
'Adobe_'
'Nestled_'
'End_'
'comedy_'
'Facilities_'
'product,_'
'Tactical_'
'state-of-the-art_'
'classical_'
'mini_'
'Barrier_'
'dining,_'
'Customs_'
'Representatives_'
'Chicagoland_'
'jewelry,_'
'outside_'
'assessment,_'
'DMS_'
'Non-Profit_'
'Lexington,_'
'consulting._'
'won_'
'waterfront_'
'stay._'
'widely_'
'straight_'
'farms_'
'embrace_'
'sq_'
'Divorce_'
'R_'
'addressing_'
'users._'
'Seating_'
'amenities,_'
'availability_'
'FL,_'
'Mapping_'
'conversations_'
'satisfaction._'
'spirit_'
'conscious_'
'export_'
'mercedes-benz_'
'icon_'
'Centre,_'
'times._'
'Second_'
'celebrate_'
'eagle_'
'diseases_'
'CRO_'
'365,_'
'Placer_'
'welfare_'
'Fintech_'
'TN._'
'Move_'
'camps_'
'reduces_'
'increases_'
'agencies,_'
'planning._'
'Without_'
'operators_'
'refrigeration,_'
'implementing_'
'Arizona._'
'Mass_'
'Higher_'
'AG_'
'Surf_'
'compare_'
'copyright_'
'He_'
'Creek_'
'Morris_'
'pro_'
'unites_'
'Stem_'
'architecture._'
'distributors,_'
'Inventory_'
'iPad,_'
'Windows,_'
'english_'
'Trinity_'
'Distributors_'
'[…]_'
'styles_'
'Size_'
'options._'
'global,_'
'reporting._'
'Gourmet_'
'Roads_'
'Spend_'
'mathematics_'
'organization._'
'contribute_'
'political_'
'Chennai,_'
'adults,_'
'integrity_'
'Chattanooga_'
'Kong,_'
'customs_'
'days,_'
'coming_'
'Xero_'
'actively_'
'environment,_'
'Nations_'
'publish_'
'deposition_'
'Earth_'
'animals_'
'planet._'
'finishing_'
'equality_'
'disability_'
'station_'
'Hand_'
'Station_'
'becoming_'
'soil_'
'Roses_'
'brothers_'
'heating,_'
'Eating_'
'concept_'
'Advertising,_'
'networks,_'
'continues_'
'blend_'
'Progeny_'
'conveniently_'
'platforms._'
'in-home_'
'leaf_'
'Edinburgh,_'
'Assessment_'
'Capture_'
'Hacker_'
'Perth,_'
'Check-in_'
'Beverly_'
'heated_'
'Outstanding_'
'hardwood_'
'furniture._'
'yard_'
'yards_'
'industries,_'
'Monitors_'
'Calgary,_'
'monitoring,_'
'rates,_'
'informed_'
'unified_'
'organisation._'
'property._'
'Frozen_'
'certified._'
'Handcrafted_'
'Operator_'
'coupon_'
'Codes_'
'appliances_'
'facial_'
'recognition_'
'Discovery_'
'fiber_'
'Optic_'
'Turner_'
'one-of-a-kind_'
'sensitive_'
'getting_'
'influence_'
'root_'
'verified_'
'breakthrough_'
'Materials,_'
'gets_'
'commission_'
'Freedom_'
'formerly_'
'9001_'
'awesome_'
'golden_'
'SF_'
'business!_'
'DSI_'
'Sandwich_'
'Conveyors_'
'builders,_'
'count_'
'expanding_'
'agencies._'
'Devices_'
'Demand_'
'Feel_'
'Exeter_'
'themes_'
's.r.o._'
'Development._'
'websites._'
'Maker_'
'therapist_'
'either_'
'IVF_'
'offset_'
'Once_'
'delight_'
'Less_'
'trial._'
'high-performance_'
'advisor_'
'teen_'
'enterprises._'
'Scandinavia_'
'Parent_'
'Bedford_'
'discovery_'
'plasma_'
'Plasma_'
'utilizing_'
'local,_'
'advantages_'
'Conveyor_'
'Hydro_'
'iron_'
'Anderson_'
'setting_'
'Vending_'
'natural,_'
'holdings_'
'advantage_'
'analytics._'
'publishes_'
'tuition_'
'stories,_'
'else_'
'BPM_'
'workflows_'
'impressive_'
'EZ_'
'convert_'
'plants_'
'screens_'
'K-12_'
'debit_'
'bid_'
'treatment,_'
'faith_'
'difference._'
'Sunday_'
'problem_'
'Contractors,_'
'mid-sized_'
'maritime_'
'programme_'
'system,_'
'hardware,_'
'Bus_'
'Oasis_'
'taxi_'
'packing_'
'Hour_'
'provision_'
'Insight_'
'T-Shirts_'
'Post_'
'publisher_'
'improvement,_'
'James_'
'author_'
'sellers_'
'Cleveland,_'
'US-based_'
'Hosting,_'
'Riviera_'
'Sacramento_'
'Per_'
'rural_'
'Brain_'
'preferred_'
'wherever_'
'speaker_'
'Speakers_'
'Keynote_'
'Pearl_'
'forex_'
'Forge_'
'Die_'
'Fostering_'
'improved_'
'navigation_'
'investments._'
'bitcoin_'
'bike_'
'Monkey_'
'wraps_'
'age_'
'threat_'
'velocity_'
'Farms,_'
'potential._'
'Dubai._'
'citizens._'
'Adults_'
'Connecticut_'
'pr_'
'optometry_'
'Douglas_'
'rapidly_'
'Hyderabad._'
'Movie_'
'Tractors_'
'compete_'
'ads_'
'platforms_'
'authorized_'
'bottles_'
'card,_'
'square_'
'Square_'
'Reed_'
'worlds_'
'Bromley_'
'Wellington_'
'Nexans_'
'ARK_'
'Ramos_'
'framed_'
'Buildings_'
'200+_'
'coverage_'
'stories._'
'X-ray_'
'Crime_'
'Before_'
'shop._'
'simplifies_'
'laminate_'
'Tile_'
'payments._'
'Colorado._'
'features._'
'Ontario._'
'package_'
'Fight_'
'confidence_'
'Reyes_'
'Win_'
'Brooklyn,_'
'Hard_'
'confidence._'
'Who_'
'U.S_'
'help!_'
'caregivers_'
'trucking_'
'baker_'
'Mezzanine_'
'Bowl_'
'Tickets_'
'not-for-profit_'
'Filters_'
'infoclosure.com_'
'omnichannel_'
'Container_'
'May_'
'Mann_'
'Diesel_'
'Dakota_'
'Refrigeration_'
'Full-Service_'
'counseling,_'
'manpower_'
'singapore_'
'hospitals_'
'Sons_'
'cater_'
'Louis,_'
'coaches_'
'Production,_'
'collaborate_'
'Browser_'
'zealand_'
'research._'
'2019_'
'story_'
'love,_'
'ratings_'
'need,_'
'guaranteed_'
'vehicle._'
'Iconic_'
'Furnishings_'
'Vinyl_'
'Yellow_'
'Traditional_'
'newsletter_'
'Executives_'
'realty,_'
'Italy,_'
'France,_'
'Setup_'
'rapid_'
'Aurora_'
'warm_'
'cellar_'
'Cellar_'
'stage,_'
'posters,_'
'Haight_'
'Shops_'
'Hiring_'
'writing,_'
'Sense_'
'Accelerator_'
'Patio_'
'Benefit_'
'surveys,_'
'faster,_'
'Germany_'
'something_'
'Watershed_'
'masonry_'
'message_'
'restaurant._'
'Innovate_'
'Springfield_'
'excess_'
'extensions_'
'dredging_'
'optimal_'
'Please_'
'medical,_'
'miles_'
'recombinant_'
'Maui_'
'Oral_'
'Ubud_'
'profits_'
'wild_'
'Nutrition_'
'dollars_'
'90_'
'furnished_'
'mind._'
'Accelerate_'
'profile_'
'knowledge._'
'apple_'
'Airline_'
'transfer_'
'yours_'
'Essential_'
'CO2_'
'gluten_'
'shapes_'
'19_'
'video,_'
'fighting_'
'Server_'
'Workout_'
'Shore_'
'CFO_'
'vibration_'
'Heights,_'
'substance_'
'action._'
'paddle_'
'boards_'
'Stand_'
'Bee_'
'York,_'
'Builders,_'
'…_'
'debt_'
'Party,_'
'structures_'
'Replacement_'
'Experts._'
'Strata_'
'budget._'
'Sacramento,_'
'aids_'
'Telecoms_'
'contractor,_'
'estates_'
'Its_'
'biotechnology_'
'Collection,_'
'carefully_'
'Scary_'
'PR,_'
'Content,_'
'Procurement_'
'profitable_'
'runs_'
'Outreach_'
'Iceland_'
'Jupiter,_'
'jones_'
'affordable._'
'Jones_'
'Featuring_'
'values._'
'deposit_'
'lifelong_'
'stakeholders._'
'Dinosaur_'
'Norfolk_'
'reality._'
'Hardwood_'
'Integrate_'
'Jason_'
'shoe_'
'2007,_'
'Habra_'
'st_'
'responsible_'
'Strange's_'
'trees_'
'Richmond,_'
'teach_'
'knows_'
'Migration_'
'cast_'
'recognised_'
'Stellar_'
'Redefining_'
'Atoll_'
'leading,_'
'designing,_'
'Cosmetic_'
'Faith_'
'burke_'
'worked_'
'Maidenhead_'
'Campaigns_'
'(uk)_'
'living._'
'Asbestos_'
'Experiential_'
'Buses_'
'1978,_'
'Coaches_'
'cabinetry_'
'Cabinet_'
'Processing,_'
'coffee._'
'compression_'
'properties._'
'Delivery._'
'Watches_'
'magazine._'
'Discounts_'
'Hive_'
'Chennai_'
'Arm_'
'breaks_'
'Forming_'
'Style_'
'substantial_'
'apps._'
'fostering_'
'Supplements_'
'forest_'
'reserve_'
'Jackson_'
'Optimization,_'
'breaking_'
'Services:_'
'Courses,_'
'Clearwater_'
'amplify_'
'London's_'
'Host_'
'Fun_'
'bottle_'
'Block_'
'interests_'
'hall_'
'Ramsey_'
'audiences_'
'valuation_'
'Sustainability_'
'IoT,_'
'animals._'
'owned,_'
'Act_'
'Labels_'
'Landstar_'
'Managers,_'
'regulated_'
'elegant_'
'Auburn_'
'meaningful_'
'Pajcic_'
'inventory,_'
'Warrior_'
'ordinary_'
'Chair_'
'encore_'
'stations_'
'2003_'
'guarantee._'
'goodbye_'
'pilot_'
'Supplying_'
'pioneers_'
'duty_'
'Sun_'
'Ellis_'
'Innovators_'
'Debt_'
'Firms_'
'Getting_'
'Haunted_'
'kids,_'
'beautifully_'
'written_'
'capital._'
'crime_'
'Standard_'
'Focused_'
'Forward_'
'hedge_'
'Instantly_'
'productive_'
'robust_'
'Chelsea_'
'Frederick_'
'Edmonton_'
'Acura_'
'financing,_'
'listings,_'
'Injury,_'
'Protection._'
'Jon_'
'successfully_'
'smartphones_'
'Forms_'
'QA_'
'Rights_'
'firms._'
'vehicles,_'
'Noise_'
'exists_'
'Transfer_'
'rigging_'
'Coast,_'
'computing_'
'Biblically_'
'No.1_'
'elder_'
'Suites_'
'carrying_'
'candidates_'
'versatile_'
'smartphone_'
'motorcycle_'
'Loop_'
'skill_'
'programmes_'
'000_'
'WODC_'
'items._'
'project,_'
'prep_'
'Vault_'
'too_'
'Saudi_'
'award-winning,_'
'Prague_'
'Cornaredo_'
'competent_'
'Protective_'
'labor_'
'energy,_'
'Patient_'
'auction_'
'organic,_'
'lip_'
'Mailing_'
'Owners_'
'Reservation_'
'Henderson_'
'California's_'
'Convert_'
'DJ_'
'DJ,_'
'proactive_'
'providers._'
'Accredited_'
'Camp._'
'fixed_'
'kid_'
'loans,_'
'fulfilment_'
'â_'
'furnishings_'
'touring_'
'Leisure_'
'significantly_'
'meals_'
'chemicals_'
'Internet,_'
'Items_'
'kits_'
'Dry_'
'Math_'
'Tom's_'
'data-driven_'
'Infinity_'
'BPO_'
'meat_'
'billion_'
'dairy_'
'interactive,_'
'Overland_'
'KS_'
'®_'
'Mississauga_'
'condominium_'
'ring_'
'Firm,_'
'usability_'
'Interaction_'
'Peace_'
'IOT_'
'Antonio,_'
'Antonio_'
'leads._'
'garage_'
'Mark_'
'PCI_'
'manual_'
'30+_'
'organizational_'
'Priority_'
'entertaining_'
'fast,_'
'Logo_'
'interviews,_'
'entrepreneurs,_'
'abel_'
'Tooling_'
'Village,_'
'Panama_'
'Inside_'
'Nuclear_'
'Netherlands_'
'Bolton_'
'Wave_'
'influencers_'
'round_'
'Round_'
'Cannabis_'
'Standards_'
'Bags_'
'honda_'
'KS,_'
'instruments_'
'Offit_'
'Taylor_'
'Regeneration_'
'Neural_'
'Minerals_'
'Partnering_'
'Letting_'
'Acadiana_'
'sitting_'
'Duluth,_'
'Duluth_'
'Waratah_'
'classroom_'
'1995._'
'pickup_'
'Service,_'
'channels_'
'architects,_'
'bars,_'
'Color_'
'FDA_'
'house,_'
'Sweet_'
'stars_'
'Stars_'
'challenging_'
'Harrison_'
'CS_'
'Press_'
'Aston_'
'England._'
'Bethany_'
'antibody_'
'gene_'
'duplicator,_'
'Soft_'
'Birthday_'
'Integrators_'
'mainly_'
'Thailand._'
'cakes,_'
'NJ._'
'Creations_'
'OK_'
'Steakhouse_'
'Medicare_'
'Merchandise_'
'medication_'
'maximise_'
'vacations_'
'Sarasota_'
'Wolfe_'
'dealers_'
'Taq_'
'Polymerase_'
'Cast_'
'Now._'
'organize_'
'am_'
'Seven_'
'adult_'
'Mellow_'
'hunter_'
'Blackwatch_'
'INFINITI_'
'industry's_'
'Velocity_'
'Hunter_'
'modular_'
'cybersecurity_'
'Cybersecurity_'
'Lasik_'
'hyundai_'
'Newport_'
'devices,_'
'Guardian_'
'account_'
'Manufacture_'
'pricing._'
'unlimited_'
'centre,_'
'World-Class_'
'Alan_'
'lists_'
'(800)_'
'qualify_'
'Slurry_'
'Remedies_'
'fabric_'
'Counties_'
'Patients_'
'Panels_'
'Synergy_'
'incentives_'
'documents_'
'bikes_'
'Wooden_'
'Thrive_'
'Images_'
'Lacrosse_'
'Hearts_'
'Amrita_'
'Advisory,_'
'Library_'
'Guelph_'
'Waterloo_'
'Influencer_'
'Disaster_'
'Identity_'
'Hertz_'
'EMC_'
'50's_'
'Pathology_'
'Theater_'
'vegan_'
'clinicians_'
'Holdings_'
'Grating_'
'Manor_'
'Goat_'
'Cheese_'
'Drucker_'
'digital,_'
'Meter_'
'CGI_'
'immediate_'
'Hijab_'
'reporting,_'
'APIs_'
'Cuba_'
'Wiser_'
'Immigrant_'
'Heat_'
'Dispensary_'
'Lawn_'
'Mill_'
'Sheffield_'
'Goalsetter_'
'Porn_'
'labeling_'
'Front_'
'Rhinestone_'
'Paradise_'
'Pupil_'
'Honey_'
'Master_'
'Hiab_'
'Glucose_'
'Bright_'
'Swanson_'
'BTL_'
'REAL_'
'Trucking_'
'Vietnam,_'
'maintains_'
'recycling_'
'drama_'
'PATH_'
'firms,_'
'Chocolate_'
'sanitary_'
'currency_'
'behavior_'
'top-rated_'
'Patent_'
'camping_'
'french_'
'Tracking,_'
'HOA_'
'Anandam_'
'Forces_'
'),_'
'NSL_'
'Tenerife_'
'Chef_'
'Crutchfield_'
'Packers_'
'monthly_'
'backing_'
'Malaysia's_'
'Relationship_'
'(CRM)_'
'Software._'
'Powerful_'
'converts_'
'Exit_'
'Safety,_'
'Launchers,_'
'Simulation_'
'facility,_'
'Assistance_'
'months_'
'8th_'
'NAV_'
'AI._'
'lng_'
'loading_'
'MD,_'
'DC,_'
'Vincent_'
'studio,_'
'consumers._'
'value._'
'resonate_'
'acupuncture,_'
'Valley,_'
'Helpdesk_'
'S.J._'
'School._'
'Optimization_'
'efficiency,_'
'desktop_'
'Desktop_'
'aisle_'
'Pirate’s_'
'snacks_'
'cheese_'
'eProcurement_'
'let's_'
'counseling_'
'Compliant_'
'OBGYN_'
'welcomes_'
'communicators_'
'Denver's_'
'plan,_'
'numerous_'
'psychology_'
'All-In-One_'
'70%_'
'sketch_'
'Sketch_'
'Tradecloud_'
'waste._'
'guests_'
'difficult_'
'Brighton_'
'scotland_'
'Orlando,_'
'and/or_'
'MO._'
'GDPR_'
'Haiti_'
'Accept_'
'Debit_'
'Engraving_'
'defence_'
'Units_'
'Respiratory_'
'explorers_'
'walk_'
'fill_'
'Israel_'
'Mountains_'
'Structured_'
'NZ._'
'Progressive_'
'CT,_'
'rose_'
'abused_'
'trains_'
'Earn_'
'Biological_'
'//_'
'Neots,_'
'Chula_'
'Vista,_'
'Diego._'
'virtually_'
'Mommy_'
'between._'
'metrics_'
'multi_'
'dryer_'
'weightloss_'
'40+_'
'polymer_'
'Polymer_'
'Guelph,_'
'27_'
'Epik.com_'
'add_'
'flowers_'
'country._'
'night_'
'budget_'
'Registration_'
'dress_'
'files_'
'mind,_'
'Write_'
'authors._'
'StockCo_'
'livestock_'
'Funder_'
'Streets_'
'Enter_'
'DevOps_'
'LinkedIn_'
'generation,_'
'renewables_'
'available!_'
'reports_'
'Alton,_'
'Customized_'
'tests_'
'diseases._'
'IQ_'
'execution_'
'Africa,_'
'Alaska,_'
'0800_'
'solutions!_'
'Print,_'
'Algarve_'
'listing_'
'apartments,_'
'quotes._'
'clientele_'
'Annapolis,_'
'Optimize_'
'Pegasus_'
'suites_'
'Caribbean_'
'foreclosures,_'
'Listing_'
'teachers,_'
'students._'
'Storage._'
'filtration_'
'taxes_'
'Return_'
'VTEX_'
'Cultural_'
'balance_'
'forming_'
'notification_'
'compassion_'
'ROV_'
'leak_'
'cement_'
'survey_'
'sensors_'
'Survey_'
'thru_'
'actually_'
'good._'
'player_'
'distributed_'
'brand,_'
'Teams._'
'Aisling_'
'Partners._'
'Bathroom_'
'Nine_'
'Mississauga,_'
'allied_'
'PV_'
'drink_'
'Because_'
'fraud_'
'guaranteed._'
'Surat,_'
'Stewart_'
'focussed_'
'HR,_'
'claims,_'
'southern_'
'california_'
'personal,_'
'Orange,_'
'set-up_'
'XR_'
'Economy_'
'shooting_'
'Hyderabad,_'
'tailoring_'
'Workwear_'
'properties,_'
'Properties,_'
'Rack_'
'fence_'
'Keeping_'
'installing_'
'Fences,_'
'Gates_'
'transformation,_'
'steak_'
'shops,_'
'multimedia_'
'Displays_'
'tracker_'
'accounts,_'
'banks,_'
'Lawyers,_'
'IA_'
'Emission_'
'dust_'
'Farmington_'
'vessels_'
'port_'
'Internet._'
'environments_'
'possible._'
'desire_'
'Probate_'
'Brisbane._'
'mr_'
'dealership._'
'authorised_'
'mojo_'
'Box_'
'repair._'
'wait_'
'Swimwear_'
'BHPWAIO_'
'Supervisor_'
'Requirements_'
'strategies,_'
'enablement_'
'App._'
'simulations_'
'Eau_'
'therapeutic_'
'customize_'
'Worcestershire_'
'aimed_'
'rather_'
'democracy_'
'encounter_'
'sites,_'
'Meeting_'
'House._'
'interpreting_'
'interpreters._'
'Innovations_'
'ips_'
'IPS_'
'became_'
'Dermclinic_'
'regular_'
'1971,_'
'today,_'
'branches_'
'facing_'
'representation_'
'Incorporate_'
'Includes_'
'Records_'
'Kingston,_'
'wheel_'
'Toronto's_'
'Inc,_'
'14_'
'days._'
'Trainer_'
'Interest_'
'Bicycle_'
'Problem_'
'resources._'
'Companies,_'
'gmc_'
'dealer._'
'tables_'
'weekend_'
'encourage_'
'reputed_'
'Exporters_'
'inspiration_'
'artisan_'
'Mix_'
'shoes,_'
'Enhancing_'
'pipeline_'
'electrician_'
'pub_'
'JavaScript_'
'charles_'
'bookkeeping,_'
'Duncan_'
'Bookkeeping_'
'employed_'
'biotech_'
'analyze_'
'disorders._'
'responsibly_'
'year,_'
'heart._'
'Ashley_'
'Charleston_'
'canberra_'
'Canberra_'
'2005._'
'That’s_'
'Turn_'
'Parts,_'
'Specialities_'
'creek_'
'California,_'
'PSI_'
'coverage,_'
'Saint_'
'Paul,_'
'recoveries_'
'jeep_'
'Ram,_'
'environmental,_'
'Analytical_'
'Municipal_'
'recruit_'
'1983_'
'Openspace_'
'supportive_'
'District,_'
'placements_'
'Prep_'
'phase_'
'extraction_'
'spare_'
'Three_'
'Ecotourism_'
'Secured_'
'S:CRAFT_'
'Blinds_'
'define_'
'Function_'
'D.C._'
'communication._'
'conferences,_'
'Shows_'
'Legere_'
'midwest_'
'approved_'
'do,_'
'banner_'
'Accent_'
'update_'
'invest,_'
'Packaging,_'
'Litigation,_'
'others_'
'PPE_'
'travel,_'
'personally_'
'technicians_'
'Neteon_'
'swim_'
'wear._'
'Swim_'
'decision_'
'diabetic_'
'predictive_'
'Leveraging_'
'restored_'
'intimate_'
'lighting._'
'entertainment,_'
'Ron_'
'spot_'
'pinnacle_'
'quo._'
'Photographer_'
'EPS_'
'Train_'
'travels_'
'cruises_'
'projectors,_'
'aspiring_'
'Reef_'
'Lodge_'
'fix_'
'HID_'
'Repairs_'
'diamonds,_'
'watches,_'
'suitable_'
'initiatives._'
'dentist_'
'ages._'
'tubular_'
'Customised_'
'remains_'
'Jewel_'
'presents_'
'ft_'
'divorce,_'
'essentials_'
'organics_'
'ebb3_'
'pregnancy_'
'God_'
'champion_'
'Surveyors_'
'Consultants,_'
'pharmaceuticals_'
'Houston._'
'mapping_'
'simplicity_'
'Squiby_'
'associated_'
'Miami,_'
'Philadelphia,_'
'strong,_'
'banks._'
'country’s_'
'journey._'
'Africa's_'
'harvesting_'
'developments._'
'Preclinical_'
'outreach_'
'Computing_'
'companion_'
'inn_'
'lodging_'
'Disrupting_'
'subscriptions_'
'Roasted_'
'dimension_'
'Dimension_'
'Reseller_'
'Promise_'
'Miltek_'
'Memphis,_'
'raise_'
'worldwide,_'
'GIF_'
'friends._'
'Fasteners_'
'Software-_'
'Coaching_'
'creatively_'
'developing,_'
'starts_'
'manager_'
'Log_'
'Belle_'
'Fleur_'
'ticketing_'
'attractions_'
'parks,_'
'museums_'
'urgent_'
'campus_'
'Albans_'
'implementation,_'
'owners,_'
'interest_'
'terms_'
'tomorrow._'
'automation._'
'serviced_'
'BMS_'
'Ohio's_'
'lots_'
'Teeth_'
'IBM_'
'license_'
'Loyalty_'
'funding._'
'won't_'
'employees,_'
'States,_'
'donors_'
'Organisation_'
'visionary_'
'warehouse,_'
'retailers,_'
'producers._'
'Roller_'
'doors._'
'olive_'
'Gastroenterology_'
'centers._'
'redefine_'
'qualifications_'
'baltic_'
'Baltic_'
'e_'
'Chemicals,_'
'Double_'
'Fundraising_'
'hospice_'
'illnesses_'
'Streamline_'
'suppliers._'
'guarantees_'
'Discover,_'
'Mail_'
'Colleges_'
'details_'
'Admission_'
'Musical_'
'Artistic_'
'17_'
'China,_'
'countries._'
'bookings_'
'apparel,_'
'processes,_'
'fashionable_'
'issues._'
'whitefox_'
'Name_'
'Deposition_'
'employees._'
'du_'
'satisfaction,_'
'solid-consulting.com_'
'body,_'
'IL._'
'dos_'
'innovators_'
'Devon._'
'Tips,_'
'equip_'
'Equip_'
'portable_'
'Welfare_'
'Bros_'
'piping_'
'mainland._'
'eating_'
'Communication,_'
'Shopware_'
'webshop_'
'sinds_'
'VOIP,_'
'eLearning_'
'worn_'
'underdog_'
'Anchor_'
'parent_'
'Pitch_'
'members,_'
'Buffalo_'
'stylists_'
'Tapas_'
'silicon_'
'hands-on_'
'campuses_'
'Logic_'
'Greek_'
'housing._'
'Known_'
'manufacturers,_'
'woodworking_'
'Support._'
'Interviews_'
'Maine_'
'unbeatable_'
'qualities_'
'Meals_'
'networks._'
'Enhance_'
'supervision_'
'Planner_'
'Indiana,_'
'press_'
'philosophy_'
'Resorts_'
'recommendations_'
'enthusiasts._'
'compass_'
'Kong's_'
'Wines_'
'Their_'
'Administration._'
'Broomfield,_'
'CO,_'
'models._'
'castle_'
'Places_'
'State,_'
'Minds_'
'effort_'
'discerning_'
'a.s._'
'ammonia_'
'Aqua_'
'Science._'
'Prize_'
'Weather_'
'Non_'
'type_'
'Le_'
'Inbound_'
'Coupons_'
'Promo_'
'cooking_'
'it,_'
'Selfie_'
'booths_'
'lemon_'
'Lemon_'
'Groundwork_'
'Accessories._'
'SureStore_'
'8_'
'Dayton_'
'partnering_'
'seekers_'
'top-level_'
'region,_'
'there._'
'thrive._'
'doesn’t_'
'Region._'
'Servicing_'
'Manchester,_'
'recommended_'
'Fortune_'
'Ireland,_'
'Dublin,_'
'Jim_'
'compelling_'
'religious_'
'Advancing_'
'right._'
'Pavement_'
'workers'_'
'comp_'
'Workers'_'
'memorial_'
'Tahoe_'
'22_'
'Assembly_'
'Realtime_'
'Mac_'
'phillips_'
'LGBTQ_'
'empowered_'
'Voodoo_'
'rugged_'
'fax_'
'rolling_'
'dies_'
'incentive_'
'MRP_'
'lose_'
'lean_'
'outcomes._'
'Crazy_'
'standards._'
'Auckland,_'
'(a_'
'homeowner_'
'UK-based_'
'Modular_'
'nothing_'
'prague_'
'sexual_'
'exploitation_'
'Parents_'
'Fixtures_'
'secret_'
'in-person_'
'Lauderdale_'
'modelling_'
'indiana_'
'Lebanon,_'
'beverage_'
'loft_'
'roof_'
'lights._'
'meaning_'
'clean,_'
'Zip_'
'Myers_'
'LLC:_'
'Achieve_'
'Teen_'
'360°_'
'present_'
'calendar_'
'Civic_'
'business'_'
'risk._'
'booster_'
'Booster_'
'biopharmaceutical_'
'WA,_'
'essence_'
'cases._'
'2005,_'
'multidisciplinary_'
'professionalism_'
'Solveig_'
'Editing,_'
'debugging_'
'gravity_'
'engagement._'
'Hydropower_'
'Operation_'
'Maintenance,_'
'Producer_'
'Lending_'
'community-based_'
'Airport._'
'Hoof_'
'Boots_'
'anderson_'
'lies_'
'drinks_'
'vending_'
'Drink_'
'empire_'
'pain_'
'precise_'
'moment_'
'trades_'
'OUR_'
'Raw_'
'Burlington,_'
'service!_'
'philippines_'
'serviarchivos.com_'
'gaining_'
'nurses_'
'Trailer_'
'upon_'
'animated_'
'Critical_'
'sources_'
'acquire_'
'Sporting_'
'puts_'
'widest_'
'dinner_'
'assessments_'
'adaptive_'
'Low-Code_'
'purple_'
'Park._'
'insurance._'
'Insurance._'
'room,_'
'vegetables,_'
'Owned_'
'IPC_'
'SMBs_'
'Camera_'
'joint_'
'specialist._'
'Serve_'
'dresses,_'
'Hygienic_'
'washroom_'
'div._'
'sutton_'
'Risks_'
'150_'
'cafe_'
'universities,_'
'advancing_'
'promising_'
'chamber_'
'cargo_'
'reading_'
'directory_'
'CDN_'
'pro,_'
'oasis_'
'evaluate_'
'recovery._'
'Stocking_'
'Carlo_'
'CCS_'
'Vision,_'
'Barcode_'
'abroad_'
'Hardware,_'
'UAE,_'
'liners,_'
'wise_'
'Wise_'
'Rishikesh_'
'Khed_'
'Emerging_'
'measure_'
'efficiently._'
'Fan_'
'Highlands_'
'careers._'
'tetralog_'
'Bob_'
'Improvement,_'
'China._'
'rooted_'
'express_'
'Center,_'
'Industries,_'
'Assurance_'
'hand._'
'writer_'
'VIC,_'
'plaza_'
'counts_'
'Hamilton_'
'amenities_'
'Top-Rated_'
'Explorers_'
'Panel_'
'Nemob_'
'drive._'
'Easiest_'
'gifts,_'
'boxes_'
'generation._'
'hit_'
'Gain_'
'Kind_'
'corner_'
'measurement_'
'semiconductor_'
'Creative._'
'pretty_'
'worth_'
'Roads,_'
'lifestyle,_'
'are!_'
'tv_'
'Forex_'
'amenities._'
'Smartest_'
'ticket_'
'lathes,_'
'stylish,_'
'alliance,_'
'practical,_'
'Jira_'
'Trim_'
'pension_'
'Toril_'
'Invested_'
'Inclusive_'
'pipe_'
'636_'
'Restaurant,_'
'areas:_'
'literacy_'
'Justice_'
'oregon_'
'Start,_'
'Economic_'
'e-mail_'
'Surrey._'
'print,_'
'Tucson_'
'CMS_'
'recreation_'
'douglas_'
'sunglasses_'
'exam_'
'Chester,_'
'radiant_'
'Cooling_'
'gypsum_'
'energy-efficient_'
'kinship_'
'updated_'
'Whale_'
'Montgomery_'
'cinema_'
'Cinema_'
'notice_'
'tractors,_'
'right,_'
'Presto_'
'Hassle_'
'traffic,_'
'Aid_'
'results,_'
'2003,_'
'fastest-growing_'
'campaigns,_'
'Nashville_'
'Trees_'
'Scotch_'
'rings,_'
'rings_'
'manta_'
'Dive_'
'Manta_'
'Graphics_'
'Media:_'
'Consult_'
'seeking_'
'SSD_'
'foundry_'
'advocacy_'
'1980_'
'Cool_'
'sheets,_'
'templates_'
'babies_'
'X-Ray_'
'Comfy_'
'Cow_'
'Cream_'
'SUVs._'
'Decision_'
'train_'
'putting_'
'learning._'
'carpet,_'
'hardwood,_'
'Pittsburgh._'
'wish_'
'Engage,_'
'2006._'
'accept_'
'methods._'
'hyde_'
'Hyde_'
'Simple,_'
'Taxi_'
'Customizable_'
'preparation,_'
'Boca_'
'NSI_'
'acres_'
'Processor_'
'consider_'
'effective._'
'started._'
'Firm._'
'Claims._'
'Tea_'
'Born_'
'Island._'
'Ergonomic_'
'chairs_'
'Emotional_'
'retreats_'
'effectively_'
'Provide_'
'Ford,_'
'Dodge,_'
'abc_'
'ABC_'
'race_'
'gauges_'
'racing_'
'lives,_'
'communities,_'
'other._'
'accounts._'
'boys_'
'Teens_'
'Midtown_'
'contains_'
'Handmade_'
'campaign_'
'But_'
'smooth_'
'Islamabad,_'
'Pakistan._'
'cannot_'
'born_'
'uniting_'
'Collaboration_'
'Pick_'
'Canvas_'
'70_'
'Family-owned_'
'80_'
'distance_'
'up._'
'A/S_'
'specialties_'
'Paneling_'
'art._'
'polishing_'
'keeps_'
'evovelo_'
'detroit_'
'pop_'
'trips,_'
'mann_'
'chemicals,_'
'Generator_'
'ID_'
'refrigeration_'
'chairs,_'
'HIV_'
'Manpower_'
'Singapore's_'
'staffing,_'
'Steelco_'
'infection_'
'grower,_'
'shipper_'
'Immuno-Transcriptomics_'
'detect_'
'venue._'
'Optical_'
'Illinois._'
'cape_'
'counties_'
'Seamless_'
'mighty_'
'movies_'
'st._'
'Tokyo,_'
'brokers,_'
'Morgan_'
'Piping_'
'GrainsConnect_'
'growers_'
'Shoptagr_'
'Cashback_'
'Store._'
'accessories,_'
'universities_'
'emissions_'
'kinds_'
'Free,_'
'Christchurch_'
'craftsmanship_'
'passionately_'
'Diamonds_'
'zone_'
'Thank_'
'Zone_'
'furnishing_'
'enhanced_'
'Rochester,_'
'brought_'
'Industrial,_'
'laminate,_'
'bounce_'
'appointments_'
'Wilson_'
'server_'
'virus_'
'setup_'
'voor_'
'credit,_'
'Realty,_'
'Greece,_'
'Supplement_'
'medium-sized_'
'Derbyshire_'
'Derbyshire._'
'groups,_'
'plumbers,_'
'electricians,_'
'Customers_'
'problems._'
'Spirit_'
'contracts._'
'retailers._'
'SIA_'
'screenings_'
'Screeners_'
'Purchase_'
'Yarra_'
'tasting_'
'Winery,_'
'Toyota,_'
'Makeup_'
'reports._'
'Seed_'
'Denizen_'
'Ohio,_'
'Nebraska._'
'Nova_'
'falls_'
'city,_'
'Brewing_'
'NM_'
'Assault_'
'Assessments_'
'Perth._'
'Registered_'
'Winner_'
'awards_'
'signal_'
'processing._'
'resins_'
'state's_'
'accelerator_'
'bridge,_'
'Giant_'
'Freeman_'
'Nail_'
'wine._'
'tea_'
'Integrator_'
'Protection,_'
'las_'
'Theme_'
'does_'
'laws_'
'Scottish_'
'Electronics,_'
'Chemistry_'
'1440_'
'seo_'
'eco_'
'classic_'
'assets._'
'IADC_'
'2002._'
'Transplant_'
'replaces_'
'appointment._'
'partnerships_'
'others._'
'task_'
'x_'
'focused._'
'oral_'
'Lokha_'
'Resort,_'
'52_'
'NLP_'
'Specialist,_'
'workspace_'
'15%_'
'Facades_'
'supply,_'
'wave_'
'One-Stop_'
'Murray_'
'Tennessee_'
'mortgages_'
'Rouge_'
'subsidiary_'
'spatial_'
'Boulder_'
'protection,_'
'centrifugal_'
'WHINN_'
'Jimbaran_'
'entities_'
'crafts_'
'e-commerce._'
'INC._'
'Omnichannel_'
'waterproofing_'
'Leicestershire,_'
'Leicestershire_'
'.NET_'
'Race_'
'Champions_'
'pools,_'
'Gyms_'
'Carlson_'
'mail,_'
'interim_'
'Waterproof_'
'Jewelers_'
'Jeweler_'
'Architects,_'
'Suspension_'
'crane_'
'coil_'
'hooks,_'
'Pralines_'
'bvba_'
'comfort,_'
'level,_'
'Middletown_'
'style,_'
'trends,_'
'wellness._'
'Ask_'
'Quote!_'
'servers_'
'Friendly_'
'tripdesigners.co_'
'transfers_'
'seamlessly_'
'wallet_'
'bridging_'
'Evolution_'
'Forklift_'
'computers_'
'following_'
'Wayne,_'
'Canton,_'
'infrastructure._'
'surf_'
'SUP_'
'bee_'
'smxc.com_'
'additions_'
'Developments_'
'details._'
'skip_'
'containers_'
'Norco,_'
'Conservative_'
't-shirts_'
'encompasses_'
'More._'
'Installations_'
'fields._'
'Byrom-Davey_'
'Put_'
'Land,_'
'boats_'
'moore_'
'Copier_'
'SKILLS_'
'Feed_'
'range._'
'Creative,_'
'initiatives_'
'Recreational_'
'Leap_'
'Winery_'
'Recognition_'
'Age_'
'trendiest_'
'Masks,_'
'Costumes_'
'DSH_'
'Prepare_'
'thomas_'
'foreclosure_'
'network._'
'ramsey_'
'enrichment_'
'functions_'
'history,_'
'Mental_'
'landscapes_'
'Murphy_'
'meetings,_'
'Kensington_'
'Ann_'
'Arbor,_'
'Tell_'
'Jackson,_'
'Newcastle_'
'Furniture,_'
'3v_'
'Johns_'
'eCommerce,_'
'ESB_'
'EU_'
'Markk_'
'gear._'
'mk_'
'Safari_'
'zoo_'
'alternatives_'
'2008_'
'anywhere._'
'Assistant_'
'Management._'
'Forensic_'
'Lakai_'
'questions._'
'casting,_'
'wax_'
'planners_'
'Sidekicks_'
'tier_'
'Mobile,_'
'hiking,_'
'MDC_'
'called_'
'Zenstores_'
'maya-entertainment.com_'
'J_'
'creatives_'
'roofs_'
'extensions,_'
'aluminium_'
'Scotland,_'
'Toronto._'
'situated_'
'healthtech_'
'extended_'
'Surrey,_'
'Berkshire,_'
'flats_'
'Portugal_'
'family._'
'Toll_'
'Blending_'
'distributor._'
'really_'
'encourages_'
'Pleasant_'
'alpha_'
'browser_'
'reviews,_'
'2001,_'
'Surgical_'
'breast_'
'Sex_'
'largest,_'
'closely_'
'tips,_'
'league_'
'LifeThreads_'
'deltablue_'
'automating_'
'Limited,_'
'Parallel_'
'internal_'
'GmbH_'
'bare_'
'BARE_'
'diving_'
'Productive_'
'positioning_'
'loyal_'
'Loyal_'
'multi-channel_'
'Melbourne._'
'held_'
'Woodlands_'
'company;_'
'Canary_'
'Essex,_'
'Kent._'
'infotech_'
'Cordis_'
'dealerships_'
'aps_'
'Vadodara_'
'Visitor_'
'Diary_'
'Research,_'
'A-Level_'
'GCSE_'
'spaces._'
'forestry_'
'reserves_'
'KoGaMa_'
'world!_'
'corporations._'
'credits_'
'publications_'
'globe_'
'trade,_'
'B_'
'daily._'
'jigsaw_'
'Aluminium_'
'Communications,_'
'Roman_'
'Subscription_'
'Caley_'
'trusted,_'
'accurately_'
'Workplace_'
'telling_'
'21_'
'prepare_'
'Profit_'
'trace_'
'folding_'
'rivers_'
'Ashner_'
'labels_'
'easily._'
'remodeling_'
'walk-in_'
'travel._'
'borrowers_'
'drilling_'
'seconds_'
'workstations,_'
'still_'
'translations_'
'Lucie_'
'Results._'
'Online._'
'Theatres_'
'Account_'
'nissan_'
'transport,_'
'units,_'
'materials,_'
'receipt_'
'bags._'
'receipts,_'
'receipts_'
'Threat_'
'transmission_'
'Spectra_'
'practice._'
'What's_'
'genuine_'
'Watersports_'
'Readpeak_'
'Franklin_'
'Prescription_'
'calling_'
'guard_'
'gutter_'
'Gutters_'
'estimate_'
'stationery_'
'Est._'
'65_'
'Oliver_'
'Wight_'
'Veterans_'
'week,_'
'fire,_'
'flood_'
'mix_'
'spent_'
'sun_'
'Enhanced_'
'toys_'
'10%_'
'Should_'
'attraction_'
'mobile-friendly_'
'oven_'
'presentation_'
'GREAT_'
'backgrounds_'
'Scotia_'
'line,_'
'Moon_'
'Organics_'
'cedar_'
'Stack_'
'ranked_'
'web,_'
'Metroplex_'
'Radiator_'
'Charge_'
'Forensics_'
'evidence_'
'Canada’s_'
'Web,_'
'frontline_'
'In-depth_'
'culture,_'
'regulation,_'
'Timothy_'
'rugs_'
'Individuals_'
'Emulate3D_'
'Kingdom._'
'Invoice_'
'Conscious_'
'aged_'
'Form_'
'deploy_'
'speakers,_'
'basic_'
'needing_'
'Mesa_'
'injuries_'
'Deer,_'
'Piazza_'
'Creator,_'
'centres._'
'Portacom_'
'Zealand's_'
'buildings._'
'Live,_'
'Temporary_'
'Paws_'
'dentists_'
'Practices_'
'Machines,_'
'Delhi,_'
'Rio_'
'Damage,_'
'wellbeing._'
'Toledo_'
'Marble_'
'cabling,_'
'Tenants_'
'Owner_'
'Bloomington_'
'artistic_'
'Pierce_'
'Vero_'
'Self-Service_'
'EZcash_'
'✔️_'
'ATM_'
'involve_'
'crime,_'
'DUI_'
'Jersey,_'
'Restoration,_'
'trailers,_'
'beacon_'
'Beacon_'
'Extraordinary_'
'McCulloch_'
'Naples_'
'attorneys._'
'Plaza_'
'(877)_'
'miamithinkers.com_'
'deli_'
'HP_'
'revolution_'
'capable_'
'beaches_'
'insured_'
'organization,_'
'men's_'
'perfume_'
'Savannah,_'
'1983,_'
'Diving_'
'howard_'
'strength_'
'Polished_'
'floors,_'
'grinding_'
'embedded_'
'Bahrain_'
'Co-educational_'
'volunteer_'
'Albert_'
'Volunteer_'
'packaged_'
'formulation_'
'Rod_'
'goals,_'
'generations_'
'clinically_'
'Lugano_'
'games,_'
'it!_'
'Everyone_'
'Ever_'
'sample_'
'anywhere,_'
'Monroe,_'
'den_'
'Penetration_'
'smile_'
'anywhere!_'
'off-grid_'
'L.L.C.,_'
'infinite_'
'ibu_'
'friends,_'
'infant_'
'Auctions_'
'Top-rated_'
'Intent_'
'2nd_'
'british_'
'presenting_'
'Improvement_'
'integral_'
'timely_'
'wire_'
'fibre_'
'Single_'
'Copiers,_'
'Comfort_'
'Proteins_'
'Xpress_'
'(888)_'
'l._'
'L._'
'shelter_'
'free,_'
'catered_'
'Facial_'
'Platinum_'
'Fairtrade_'
'boots,_'
'Something_'
'sleep_'
'sustainability._'
'Violence_'
'Hire,_'
'Very_'
'Membership_'
'choices_'
'Welwyn_'
'fast._'
'Faster_'
'rental,_'
'toilet_'
'ABS_'
'adhesives_'
'para_'
'simplest_'
'Pretoria_'
'Comedy_'
'Sky_'
'Disposal_'
'Westborough_'
'Brunswick,_'
'Fixed_'
'powers_'
'Bingham_'
'Ship_'
'Residential,_'
'Projects._'
'agriculture_'
'Each_'
'BC._'
'Microwave_'
'photographers_'
'DAVIDOFF_'
'Cab_'
'Epson_'
'regulations_'
'booth_'
'Pardot_'
'expenses._'
'NAA_'
'Millpond_'
'forward._'
'Cooking_'
'Yale_'
'Tulsa's_'
'Locations_'
'Motorola_'
'master_'
'processes._'
'ROI._'
'Too_'
'printers,_'
'matrix_'
'Workshop_'
'Mechanical,_'
'Shenandoah_'
'Can,_'
'Jerry_'
'piece_'
'OKC_'
'past_'
'shopping._'
'midstream_'
'proofing_'
'Proofing_'
'Creator_'
'U_'
'entrepreneurship_'
'sound,_'
'Utah_'
'Midland,_'
'Outsourcing,_'
'Forget_'
'facilities,_'
'workers._'
'NI_'
'teleradiology_'
'Saltwater_'
'play._'
'cashflow_'
'Delaware_'
'filters,_'
'Connection_'
'OB_'
'GYN_'
'coach_'
'bad_'
'Arkansas._'
'johnson_'
'guides._'
'Pawn_'
'Alabama._'
'Zoo_'
'competition,_'
'Benjamin_'
'Exquisite_'
'Above_'
'Salon_'
'Ai_'
'attribution_'
'spreadsheets._'
'assets,_'
'comprised_'
'years'_'
'Carolina._'
'Iowa's_'
'Milan_'
'Shredding_'
'recipes,_'
'amongst_'
'Longboat_'
'Condo_'
'Rebel_'
'Administration_'
'Preparation_'
'Restart_'
'aislelogic®_'
'Has_'
'associations_'
'Associations_'
'seagrass_'
'#NAME?_'
'comprising_'
'reporters,_'
'portal_'
'registration_'
'Rules_'
'collection._'
'Strong_'
'country,_'
'realtors_'
'Houses,_'
'Disney_'
'Gallery_'
'more..._'
'Vessel_'
'baptist_'
'Bannockburn_'
'Jesus_'
'Manning_'
'institutions_'
'cannabis_'
'FOCUS_'
'alumni_'
'Alumni_'
'Tenens_'
'SimFWD_'
'Joe_'
'Charter_'
'children's_'
'Noah's_'
'Kentucky._'
'atmosphere_'
'CloudCart_'
'autism_'
'(866)_'
'reputation._'
'Woodbridge_'
'Pan_'
'Bread_'
'watermelon_'
'Metering_'
'pump,_'
'industry-leading_'
'Saloon_'
'Kinetic_'
'1997_'
'Kurman_'
'Garson_'
'Brian_'
'another_'
'perfectly_'
'ca_'
'Stratford_'
'manufacturers._'
'wooden_'
'bowls._'
'Frank_'
'control._'
'small,_'
'commerical_'
'nurtures_'
'oakland_'
'Lafayette,_'
'sewn_'
'Maple_'
'none._'
'brainn.co_'
'Mexico._'
'renting_'
'Chicago’s_'
'Lawson_'
'curate_'
'Magnets_'
'35,000_'
'CT._'
'expertly_'
'Innovative,_'
'sdn._'
'malaysia_'
'integrator,_'
'Kenya_'
'leather_'
'doctor_'
'Extreme_'
'Branded_'
'pass_'
'designer,_'
'lifestyle._'
'lift_'
'AIM_'
'effectiveness_'
'eliminate_'
'jay_'
'fiberglass_'
'voltage_'
'event,_'
'mortgages,_'
'Meridian,_'
'Real-Time_'
'TMASF_'
'gyratory_'
'crops_'
'fireproofing,_'
'Harrisburg,_'
'Jaguar_'
'Converter_'
'energy._'
'Milo_'
'evolve_'
'Guaranteed._'
'Lifetime_'
'Exotic_'
'Evolve_'
'audiences._'
'Cornish_'
'physicians._'
'Aesthetics_'
'metodo_'
'Reality,_'
'X_'
'client._'
'duplicator_'
'DVD_'
'CD_'
'HDD_'
'Flash_'
'Lynnwood_'
'Beach._'
'Full-service_'
'Bend,_'
'dementia_'
'Recliners_'
'Recliner_'
'going_'
'what's_'
'self-service_'
'capability_'
'Flint,_'
'66_'
'veterans_'
'Campaign_'
'signs._'
'Wraps_'
'nursing,_'
'Visuals_'
'Duplication,_'
'Duplication_'
'PIM_'
'manage,_'
'martin_'
'Jobs,_'
'guidance._'
'lounge_'
'complex,_'
'shops_'
'Committee_'
'Folk_'
'fives_'
'Crossroads_'
'FBO_'
'owner_'
'Agriculture_'
'Taipei_'
'Walking_'
'Landing_'
'stichting_'
'defakkel.nl_'
'agriculture._'
'Grow._'
'next-generation_'
'âº_'
'investors._'
'Sunglasses_'
'Kid_'
'Agoura_'
'Westlake_'
'Hills,_'
'outsourcing,_'
'telemedicine_'
'Carbase_'
'yourself._'
'parking,_'
'Tower_'
'Spectrum_'
'family,_'
'lakes_'
'Background_'
'Turkey_'
'Cakes_'
'Chesapeake,_'
'speak_'
'write_'
'boards._'
'steps_'
'Adult_'
'smarter._'
'bridal_'
'toe_'
'wales_'
'Treatments_'
'Shrewsbury_'
'could_'
'League,_'
'Esports_'
'guided_'
'Workers_'
'Milling_'
'machined_'
'Uprising™_'
'pocce.it_'
'Butter_'
'Coffee,_'
'grant_'
'Muzooka_'
'artist_'
'Solicitors._'
'Done_'
'plan._'
'Wound_'
'Awesome_'
'Sightseeing_'
'Trent_'
'cancer._'
'Smyrna,_'
'losmejoresrestaurantes.com_'
'trident_'
'Trident_'
'Import_'
'PDF_'
'database._'
'SCM_'
'lasik_'
'well-known_'
'african_'
'T3_'
'meal_'
'Voog_'
'LOOP_'
'Meetings_'
'consultants._'
'clock_'
'Spares_'
'Cycle_'
'Charging_'
'users,_'
'Cloud-based_'
'TV,_'
'Plote_'
'longest_'
'engineeria_'
'Broadcasting_'
'Shell_'
't-shirt_'
'musical_'
'pattern_'
'Distance_'
'sidneystreetcafe.com_'
'L.L.C._'
'expensive_'
'NOW_'
'lecolenational.com_'
'Oy_'
'Housing._'
'keeping_'
'Ottawa_'
'Ctac_'
'realise_'
'laboratories_'
'updating_'
'SmallTalk_'
'expectations._'
'assessment._'
'Israel's_'
'Malaga_'
'Carroll_'
'slurry_'
'bedroom_'
'LABEX_'
'stuff_'
'Receiving_'
'Puhl_'
'settle_'
'upgrade_'
'ptbypt_'
'intellectual_'
'databases_'
'agriculture,_'
'NCR,_'
'Pharmaceutical,_'
'directors_'
'e-commerce,_'
'Brantford,_'
'Brantford_'
'Nashville,_'
'nan_'
'audit,_'
'enter_'
'Evertek_'
'prize_'
'supported_'
'Crean_'
'Directors_'
'bikes,_'
'Bikes_'
'Optometrist_'
'Dimas,_'
'Accepting_'
'appointments._'
'Gurgaon,_'
'estimating_'
'Swan_'
'GA._'
'twin_'
'forwarding_'
'taylor_'
'Grace_'
'playing_'
'$5_'
'less._'
'England's_'
'push_'
'event-based_'
'Alex_'
'insider_'
'privacy,_'
'Safe,_'
'Ink_'
'Kits_'
'high-speed_'
'Wettone_'
'English,_'
'mold_'
'Foundry_'
'Bronze_'
'Vortex_'
'inspires_'
'learn,_'
'le_'
'Chip_'
'Verification_'
'SVN_'
'Carefree_'
'performances_'
'disruptive_'
'Awarded_'
'Environment_'
'controllers_'
'Evil_'
'eSports_'
'Wine,_'
'Eurobodalla_'
'vintage_'
'Academic_'
'risk3sixty_'
'Leave_'
'dolphin_'
'start-ups_'
'easy!_'
'Middleton_'
'Windsor_'
'Grating,_'
'Meal_'
'Plans_'
'IOL,_'
'Philippines,_'
'Whippany,_'
'armed_'
'Armed_'
'Waka_'
'Tapu_'
'Positive_'
'Novin_'
'Simia_'
'Greenbriar_'
'ATAP,_'
'jakarta_'
'Exceptional_'
'screening,_'
'Legal,_'
'Drums_'
'Progress_'
'Spray_'
'Episcopal_'
'811_'
'Developed_'
'bodē_'
'GIFs,_'
'Dunkley_'
'Treasure_'
'worker_'
'war_'
'fundraising_'
'contracting,_'
'Vein_'
'Varicose_'
'Spider_'
'Bronx,_'
'tents_'
'assessment_'
'Creation_'
'UX,_'
'Lucky_'
'Insulation_'
'Barr_'
'we’ve_'
'lienwaivers.io_'
'Vibration_'
'element_'
'Element_'
'Transfers_'
'tissue_'
'aquarium_'
'Aquarium_'
'jungle_'
'choice._'
'Rover,_'
'marble_'
'schools._'
'Triathlons_'
'incovo_'
'cabling_'
'Allegheny_'
'Painted_'
'Ho_'
'Chi_'
'Minh_'
'deserves_'
'Machining_'
'fear_'
'conferencing_'
'Smartphone_'
'ways._'
'POR-15_'
'probux.com_'
'cotswoldcottagesonline.com_'
'auto,_'
'Jupiter_'
'Voxme_'
'robots_'
'color,_'
'Ensure_'
'Target_'
'grain_'
'rhinestone_'
'paradise_'
'dimoda.net_'
'Oman_'
'turns_'
'Circuit_'
'Berlin_'
'LOVE_'
'A+_'
'rated,_'
'AI-driven_'
'dubai_'
'Surveillance_'
'Obstacle_'
'idyn_'
'business-to-business_'
'assured_'
'Assured_'
'Rubrik_'
'plate_'
'Additive_'
'Incubator_'
'hotels._'
'Audit_'
'staff._'
'meerakker.nl_'
'Funds_'
'mineral_'
'oils,_'
'Grain_'
'Bachelor_'
'Curtain_'
'drawings_'
'8000_'
'Nortons_'
'Strella_'
'associations,_'
'31_'
'Lorry_'
'Conach_'
'rankings_'
'Tapping_'
'Circle_'
'>>_'
'Ordering_'
'facets_'
'good,_'
'cotton_'
'Maxima_'
'SEM,_'
'extremevision.com_'
'Disinfecting_'
'Covid-19_'
'robotic_'
'5th_'
'Vacuum_'
'Third_'
'ABEX_'
'delicious,_'
'Gisou_'
'Mirsalehi_'
'Salus_'
'Liquor_'
'mailing_'
'eccenca_'
'Bankruptcy_'
'Adjusters_'
'bilete_'
'year._'
'si_'
'Voices_'
'mg_'
'Stuff_'
'dotbuilte.org_'
'Olas_'
'trademark_'
'Jute_'
'Actuarial_'
'intellpros.com_'
'rentals._'
'Model_'
'der_'
'Rica_'
'eco-friendly,_'
'Madison_'
'Unlocked_'
'Shree_'
'Pushkar_'
'Fertilizers_'
'Comms_'
'conTeyor_'
'Neptune_'
'fees_'
'Currency_'
'lokora.co_'
'steam_'
'newcomers_'
'fuels_'
'DCI_'
'Edwardes_'
'saw_'
'KSA_'
'TCA_'
'Larrimer_'
'Kitchener_'
'Cleave_'
'Fizber_'
'Argent_'
'Covers_'
'Machinery,_'
'locum_'
'tenens_'
'ECU_'
'Amenity_'
'covenant_'
'Maps_'
'AVision_'
'timeku.co_'
'Orthodontics_'
'grtg.com_'
'puppet_'
'moderation_'
'protects_'
'Moderation_'
'hi-impact_'
'AmeriGlobe_'
'lustie.com_'
'Shirt_'
'PVT_'
'Chew_'
'WebHotelier_'
'fbbc.org_'
'Collateral_'
'Hutto_'
'ilili_'
'burnley_'
'Baskets_'
'closet_'
'MGH_'
'Dharuhera_'
'Awaas,_'
'Gingers_'
'Adventures_'
'Cloud-Based_'
'chennai_'
'BFS_'
'DMC_'
'Hallandale_'
'Texting_'
'MTI_'
'Queens_'
'Firenza_'
'augmented_'
'Flashlights_'
'Col_'
'Monica,_'
'LTD_'
'Lasers_'
'Tissue_'
'prestige_'
'Ankeny_'
'Adaptive_'
'Maui,_'
'Key,_'
'Mobvitel_'
'Verizon_'
'threaded_'
'Threaded_'
'English!_'
'arcomed_'
'Cod_'
'NC;_'
'Stuart_'
'avoid_'
'Universal_'
'nopCommerce_'
'Invisalign®_'
'pies_'
'Afghanistan_'
'cryogenictransportation.com_'
'Seneca_'
'Peel_'
'Compton_'
'Bowman_'
'Sinsational_'
'Doordeck_'
'CleanSpeak_'
'myofficecab.in_'
'KruseCom_'
'dedicated,_'
'Giftr_'
'gifting_'
'closing_'
'retention,_'
'abandoning_'
'Facilities,_'
'Additium_'
'Hospitals_'
'GreenLight_'
'Assistants_'
'Woods_'
'Newtown,_'
'Central,_'
'customization._'
'tasks,_'
'uncommon_'
'Uncommon_'
'Warehousing_'
'NOVA,_'
'vincent_'
'Agility_'
'illustrators_'
'Cognition_'
'illustration._'
'PR-Living_'
'Upholstery_'
'Gregory_'
'Cheltenham_'
'Enroll_'
'Octopeek_'
'objects_'
'reflect_'
'relevance._'
'Ramp_'
'Lockstep_'
'chiropractic_'
'Steven_'
'Acupuncture,_'
'Gilbert,_'
'Mesa,_'
'Acupuncture_'
'OneDesk_'
'Colour_'
'G/FORE_'
'Gloves_'
'Cabretta_'
'ventures._'
'georgia_'
'ballet_'
'Marietta,_'
'gate_'
'PubGalaxy_'
'monetization_'
'publishers._'
'revenue,_'
'Publishers_'
'GlobaLux_'
'uncompromising_'
'Offshore_'
'Partnerships_'
'NetScientific_'
'source,_'
'Diagnostics,_'
'Therapeutics_'
'Continum_'
'Polargy_'
'containment_'
'gluten-free_'
'Cheddar_'
'Puffs,_'
'crushers,_'
'Catalog_'
'OCI_'
'PunchOut_'
'Catalogs_'
'sessions_'
'Talk_'
'Counseling_'
'Videoconferencing_'
'respiratory_'
'Price._'
'REACHLaw_'
'Childcare_'
'Verifyter_'
'Debugger_'
'Speechworks_'
'1986,_'
'springs_'
'Armarii,_'
'London’s_'
'bathrooms._'
'Dot.vu_'
'immunoassay_'
'airports._'
'SkyParkSecure.com_'
'→_'
'Regenerative_'
'depot_'
'organise_'
'xtreme_'
'bubble_'
'eyes_'
'infinity_'
'pool,_'
'Samujana_'
'multi-faceted_'
'rent,_'
'Play._'
'SimpleTherapy_'
'accessible,_'
'user._'
'causing_'
'Minute_'
'expansion_'
'governance,_'
'YVA_'
'emotional,_'
'advocating_'
'Preisz_'
'individuals._'
'Vettd_'
'applicants_'
'Debits_'
'paperless_'
'mobile._'
'Paperless_'
'Cascade_'
'personalization_'
'Lennd_'
'virtual,_'
'departments_'
'Implant_'
'Kare_'
'Nebulizer,_'
'Kochi,_'
'Kerala,_'
'Kerala_'
'funnels_'
'Route_'
'you’ll_'
'back._'
'Dishmatic_'
'friend_'
'Fellow_'
'bit_'
'Ridge_'
'children,_'
'editor_'
'Editor_'
'Wellington,_'
'thinking,_'
'hydraulics,_'
'Tri-State_'
'swiss_'
'vans_'
'Leasing,_'
'VW_'
'Oregon._'
'Sanctuary_'
'Homeless_'
'vet_'
'Vet_'
'Institute,_'
'US,_'
'Resources,_'
'Giggs_'
'Eaton_'
'Socon,_'
'ANS_'
'E-commerce_'
'Westcott_'
'Cajon,_'
'encouraging_'
'Mr._'
'editors_'
'Marc_'
'cannon_'
'Carl_'
'Jasper,_'
'Concetto_'
'thompson_'
'premium,_'
'1:1_'
'quick,_'
'mac_'
'Maclocks_'
'kiosks_'
'beattie_'
'GTA,_'
'Hat_'
'Architect,_'
'ProBlogger_'
'blogging_'
'lakron.com_'
'domain._'
'Epik._'
'Lowensteins_'
'taxation_'
'Producers_'
'Rockflow_'
'Petroleum_'
'Valuable_'
'canadian_'
'Kawasaki_'
'ATVs,_'
'Motorcycles,_'
'bill_'
'Bird_'
'A•VIBE_'
'Greenscapes_'
'satisfy_'
'50+_'
'Russia_'
'Moscow_'
'Rico_'
'vehicle!_'
'Competitive_'
'UKbride_'
'Dresses_'
'Collections_'
'OCR_'
'creator_'
'FiLMiC_'
'Freelance_'
'Copywriter_'
'freelancer_'
'book._'
'bestselling_'
'Kauai_'
'staying_'
'wwwash_'
'wwwash._'
'Manufacturing,_'
'Endwell_'
'physicians,_'
'nurse_'
'practitioners_'
'setting,_'
'walk-in,_'
'Binghamton_'
'hillsong_'
'coast,_'
'groundbreaking_'
'background_'
'landlords_'
'Reports_'
'Jade_'
'Houston's_'
'Tahiti_'
'Vacations_'
're/max_'
'e-mail,_'
'M_'
'validated_'
'iq_'
'curation_'
'Reporters_'
'presentation,_'
'Videography,_'
'Norfolk,_'
'nz_'
'Tours,_'
'Cruises,_'
'Globally_'
'walker_'
'Lux_'
'Tailor-made_'
'Arrested?_'
'MayesTelles_'
'experience!_'
'1997,_'
'find,_'
'Bali_'
'Overseas_'
'Rifkin_'
'Weiner_'
'Livingston_'
'Maryland._'
'broking_'
'marine,_'
'scheduling_'
'pegasus_'
'majestic_'
'Kingston_'
'mountains_'
'revolv_'
'Schoolrunner_'
'Sussex._'
'Household,_'
'Iceland,_'
'Purified_'
'extract_'
'units_'
'Soderholm_'
'Blockpit_'
'Institutionalizing_'
'programming,_'
'shopper_'
'Keshani_'
'Studies_'
'machines._'
'Answerwest_'
'satisfying_'
'managers._'
'HipLink_'
'mass_'
'Text_'
'Soldano_'
'Riley_'
'Pasek_'
'Canty_'
'defect_'
'counsel_'
'OceanTools_'
'detection,_'
'tooling._'
'Technologists,_'
'Subsea_'
'yachts_'
'FantaSea_'
'Value,_'
'Coldfield,_'
'Walmley_'
'Oaks,_'
'County's_'
'Philadelphia's_'
'day,_'
'JiMMYBAR!_'
'earth_'
'tastes_'
'Bite_'
'yes,_'
'telecommunications,_'
'Fairfield_'
'Solano_'
'Hotfoot_'
'Lancashire,_'
'initiative_'
'efficient._'
'Forepont_'
'Stillwell_'
'trucks._'
'Fuso_'
'Trucks,_'
'Freightliner_'
'finance._'
'resume_'
'merged_'
'Alera_'
'painters_'
'Oxford,_'
'nine_'
'Vanities_'
'Division_'
'bride_'
'shipbroking_'
'shipbrokers_'
'energia_'
'Ser_'
'Brazil_'
'panels._'
'Foley's_'
'bistro_'
'2._'
'Merrion_'
'Row_'
'Fraudulent_'
'entirely_'
'focus,_'
'co.,ltd._'
'Santech_'
'Weavetech_'
'textile_'
'stewart_'
'ShadowTrack_'
'austin_'
'Lenders_'
'Sunstone_'
'delivery!_'
'Textiles_'
'Intelliswift_'
'foundations_'
'Swingvy_'
'payroll,_'
'Riverside,_'
'Bernardino_'
'Counties._'
'triple_'
'Medical._'
'inkjet_'
'ECO★SAM®_'
'SAM★INK®_'
'Latex,_'
'Solvent_'
'overseas._'
'Holo-Light_'
'ar_'
'Streaming_'
'business?_'
'Shooting_'
'services:_'
'PHP_'
'works._'
'Designing,_'
'Alsico_'
'sectors,_'
'embroidery._'
'enterprises,_'
'BEI_'
'Durable_'
'garments,_'
'elderly_'
'safer_'
'Gate_'
'multitude_'
'popularity_'
'stores._'
'Sausage_'
'PROimage_'
'Itransact_'
'index_'
'trusts,_'
'Traded_'
'annuities,_'
'LaMarca_'
'represent_'
'MobyDick_'
'Jeevika_'
'livelihood_'
'Specializes_'
'Winning._'
'Equatorial_'
'2000._'
'Ealing_'
'Mencap_'
'Viladomat_'
'Trade,_'
'Art,_'
'Norway._'
'iVIPANAN_'
'Surmasis_'
'result_'
'Roland_'
'D._'
'Waller_'
'Richey,_'
'Sunnybank,_'
'Reval_'
'Upper_'
'Gravatt,_'
'Carindale_'
'atlantic_'
'Atlantic_'
'twenty_'
'Mac,_'
'Islington_'
'warranty_'
'MR_'
'prospecting_'
'Data._'
'Salespeople_'
'Seaview_'
'Bikini_'
'collections._'
'Specialists._'
'beat_'
'Gurus_'
'harder_'
'Enablement_'
'refurbishment_'
'relocation_'
'Spacio_'
'Simulations_'
'Imagineering_'
'Claire,_'
'Colchester_'
'identification_'
'optimisation_'
'medicines_'
'Ross_'
'radius_'
'BankLabs_'
'unions_'
'Reimagining_'
'hire,_'
'feels_'
'Along_'
'MetGroup_'
'shaft_'
'innovations,_'
'evans_'
'E2_'
'Developers,_'
'Group)_'
'opened_'
'mostly_'
'iknowho_'
'eviction_'
'low-income_'
'Tenant_'
'BrightMarbles_'
'(software_'
'Organize_'
'everywhere_'
'OT_'
'Arycom_'
'connected._'
'rubber_'
'dock_'
'bumpers,_'
'herb_'
'formulas_'
'scholarship_'
'science._'
'Journal_'
'Ziad_'
'CEO_'
'Blackhawk_'
'Frontier_'
'Ag_'
'Deere_'
'Osler_'
'trainers,_'
'coaches,_'
'TrueCoach_'
'300FeetOut_'
'integrating_'
'positioned_'
'Datum_'
'Pests_'
'Rodents_'
'Customize_'
'Ticket_'
'documentary_'
'donated_'
'Populus_'
'difference,_'
'they’re_'
'recruitment._'
'Select_'
'buick_'
'truck,_'
'SUV_'
'ace_'
'Riverside._'
'Bridgeport_'
'obtained_'
'Night_'
'delivered!_'
'acuity_'
'Acuity_'
'Weâre_'
'thatâs_'
'shaping_'
'fifteen_'
'MCh_'
'Goalplan_'
'cc_'
'Datatex_'
'calls_'
'continent._'
'Will_'
'm_'
'GM_'
'valve_'
'exporters_'
'valves_'
'Valves._'
'Manufacturers,_'
'acclaimed_'
'awarded_'
'Pozitive_'
'Publicis_'
'Kosovo_'
'Short-Term_'
'Bespoke,_'
'kit_'
'Frame_'
'appliance_'
'Baths_'
'Buffalo,_'
'remodel_'
'sunwear_'
'available,_'
'women,_'
'2010_'
'gas,_'
'Kingfisher_'
'Bold_'
'Montreal,_'
'Laval_'
'EyeSouth_'
'ophthalmology_'
'practices._'
'Ophthalmology_'
'Swimming_'
'Riverwalk_'
'cruises,_'
'Byte9_'
'stack_'
'partners._'
'Massager,_'
'30-day_'
'Hop_'
'beer._'
'Nanaimo_'
'CPAs,_'
'g&g_'
'Sony,_'
'Sonos,_'
'installation,_'
'looks_'
'ARE_'
'listen_'
'interact_'
'AMEK_'
'nationally_'
'living,_'
'Theraplay_'
'Sensory_'
'Therapy._'
'software!_'
'Distributors,_'
'Bergand_'
'compassionate,_'
'safaris_'
'deeply_'
'all,_'
'personal._'
'Context_'
'Deere,_'
'Toro,_'
'Honda,_'
'specialities_'
'Functional_'
'fabricators_'
'weddings_'
'Concierge_'
'house._'
'Currently_'
'sports._'
'Employees_'
'specialties,_'
'psi_'
'High-Quality_'
'welsh_'
'knowing_'
'life's_'
'Luther_'
'Westside_'
'Minnetonka,_'
'ram_'
'McGovern_'
'AAF-Orlando_'
'CWM_'
'outback_'
'all-weather_'
'2014._'
'Glen_'
'0616698472_'
'Sample_'
'molecules_'
'GC_'
'solvents,_'
'Meaningful_'
'Mai_'
'itineraries_'
'imagination_'
'breathe_'
'windows._'
'heart,_'
'perspectives,_'
'PC._'
'Springs,_'
'relations,_'
'Crisis_'
'registration,_'
'ONE_'
'OF_'
'Woodworking_'
'stress_'
'Ligchine_'
'Delhi._'
'Irish_'
'contract,_'
'14-Day_'
'Newark_'
'Newark,_'
'Warrnambool_'
'insurances,_'
'superannuation,_'
'advising_'
'Ambleside_'
'accent_'
'Banner_'
'banners,_'
'U.S.A._'
'Banners_'
'Update_'
'spirit._'
'BEB_'
'leverages_'
'entrepreneurship,_'
'inner_'
'brave_'
'Inner_'
'kg_'
'ETFE_'
'Automotive,_'
'Dryfast_'
'Mold,_'
'MBot_'
'educational,_'
'Kugler_'
'Kandestin_'
'bankruptcy,_'
'action,_'
'Bankruptcy,_'
'HCE_'
'Worldwide._'
'Lifemarque_'
'outdoor,_'
'Jennifer_'
'Turcotte_'
'nation’s_'
'districts_'
'Intrasonics_'
'watermarking_'
'canine_'
'Highland_'
'ten_'
'AC_'
'Quickly_'
'included_'
'PQ_'
'Hillo_'
'UNANICO_'
'Fesil_'
'minerals,_'
'wires_'
'Pioneers_'
'ferroalloy_'
'Valley's_'
'Venue._'
'entertainment._'
'district,_'
'deco_'
'played_'
'Lewis_'
'Black,_'
'Pinnacle_'
'Blavity_'
'Creativity_'
'drawing_'
'Manchesters_'
'Drawing_'
'heartland_'
'legal,_'
'diligence,_'
'enforcement,_'
'personnel._'
'intensive_'
'Dance_'
'Gala_'
'barriers_'
'transformative_'
'Excellent_'
'FAVI_'
'projector_'
'screens,_'
'streaming._'
'Bloop_'
'suites._'
'Fiscal_'
'VAT,_'
'Duties,_'
'VAT_'
'Techville_'
'GTA's_'
'Bring_'
'damaged_'
'Encompass_'
'CDE_'
'Smyrna_'
'Georgia,_'
'retreats,_'
'MBA_'
'conferences_'
'clients'_'
'bike,_'
'boat,_'
'Designveloper_'
'Vietnam._'
'realize_'
'21st_'
'fun!_'
'smiles_'
'hangzhou_'
'first-class_'
'hmg_'
'decades,_'
'HMG_'
'doorstep_'
'launched_'
'bigger_'
'Forum_'
'Concept_'
'25,000_'
'Rentals,_'
'Planning,_'
'Floral_'
'o'connell,_'
'probably_'
'TOVI_'
'trust,_'
'Life's_'
'Rhythm_'
'Posters_'
'Organic,_'
'vGPU_'
'optimised_'
'infrastructures_'
'enabled_'
'Formerly_'
'Susquehanna_'
'Pregnancy_'
'Ministries_'
'Carpenter_'
'Stroud,_'
'posture_'
'Burston_'
'Cook_'
'Meridian_'
'submit_'
'3Chem_'
'Male_'
'Penile_'
'HERE_'
'SMO,_'
'PPC._'
'William_'
'Destin_'
'UAV_'
'VTOL_'
'Drones_'
'Surveying_'
'contact,_'
'bharat_'
'forge_'
'contemporary,_'
'foodservice_'
'fulfillment_'
'Fulfillment_'
'Euro_'
'Motorcars_'
'drivers._'
'personalise_'
'mitigation_'
'willing_'
'Prosperity_'
'Rainwater_'
'RainHarvest_'
'Neuroscience_'
'CRO,_'
'content,_'
'activity,_'
'Azure,_'
'SPCA_'
'1973_'
'adoption,_'
'Accommodations_'
'Victor_'
'Allen's_'
'partnerships,_'
'cardboard_'
'balers,_'
'Trash_'
'Gambling_'
'CKS_'
'academies_'
'tournaments_'
'TW_'
'Robot_'
'ny_'
'classes._'
'Megacool_'
'SDK_'
'players_'
'Sharing_'
'HCL_'
'Banding_'
'Corrosion_'
'aging,_'
'Homecare_'
'Antenna_'
'Aviation,_'
'Military,_'
'Cancer,_'
'Hatcher_'
'futures_'
'hvac_'
'certifying_'
'monument_'
'Kayenta_'
'No._'
'DIW_'
'safeguards_'
'encrypted_'
'Enovate_'
'AS_'
'Poor_'
'fragrance_'
'Fragrance_'
'Fragrances_'
'Gainesville_'
'TOR_'
'visitor_'
'galleries,_'
'Brigham_'
'minor_'
'emergencies._'
'Walk-In_'
'Occasions_'
'Hertfordshire_'
'Inlet_'
'Bay._'
'Cain_'
'Rockford_'
'Wait-State:_'
'PLM_'
'Sudburys_'
'succession_'
'Accountants,_'
'Whangarei_'
'reinventing_'
'embracing_'
'generators,_'
'oil,_'
'Lowe_'
'preeminent_'
'thirty_'
'OmniSYS_'
'pharmacies_'
'communicate_'
'walnut_'
'for,_'
'honesty,_'
'occasion_'
'Seidner_'
'Tooth_'
'optics_'
'Oracle,_'
'Microsoft,_'
'IBM,_'
'Kangaroo_'
'Applying_'
'Dynamometer_'
'Dyne_'
'Parley_'
'collaborative,_'
'negotiation_'
'governments._'
'INGTECH_'
'leading-edge_'
'stem_'
'disorder_'
'Websites,_'
'artfully_'
'technologically_'
'Infoplus_'
'3PL_'
'comparative_'
'package._'
'requirements,_'
'maintenance._'
'Reading_'
'safest,_'
'Glide_'
'eGamingServices_'
'operators._'
'vendors,_'
'alike._'
'Programmes_'
'learners_'
'msp_'
'exhibitions._'
'AV,_'
'Speciality_'
'Institutional_'
'chic_'
'dresses_'
'tops_'
'occasion._'
'associados_'
'EMI_'
'deFacto_'
'CPM_'
'Silverback-supply.com_'
'palace_'
'In-Person_'
'Louisville,_'
'View,_'
'1978_'
'Aquabrass_'
'fixtures._'
'offerings_'
'supervisors_'
'NCSM_'
'Mathematics_'
'to,_'
'organizations,_'
'FineDine_'
'Menu_'
'comfort._'
'wardrobe_'
'Maternity_'
'Pea_'
'Pod_'
'Tamil_'
'PG_'
'roasters_'
'Coffex_'
'Roasters_'
'roasting_'
'Brisbane,_'
'theater_'
'Broadway_'
'Ensign_'
'spanning_'
'period_'
'List_'
'Beaches_'
'WWA_'
'footwear,_'
'executives_'
'advantage._'
'City’s_'
'socially_'
'focused,_'
'Waltrump_'
'minnesota_'
'politics,_'
'Publishing_'
'educating_'
'showing_'
'therapists_'
'physios_'
'sporting_'
'lightweight_'
'colourful_'
'protocol_'
'BTU_'
'CVD_'
'SP3_'
'categories._'
'Stellarise_'
'Grail_'
'Dixline_'
'santos_'
'genius_'
'disabled_'
'Insights,_'
'fencing,_'
'Wet_'
'Beauty._'
'roses_'
'Ecuador_'
'irrigation_'
'Tourism_'
'Education,_'
'williams_'
'ago,_'
'JK_'
'stability_'
'davidson_'
'Davidson_'
'Plumbing,_'
'HVAC,_'
'Bros._'
'A&M_'
'Degree_'
'Interactions_'
'field._'
'Zippity_'
'workplace._'
'Deuce_'
'wristbands_'
'silicone_'
'striving_'
'Basketball_'
'anchor_'
'Surrounding_'
'Motawi_'
'tiles_'
'artists._'
'Distinctive_'
'Billing,_'
'Educators_'
'pitch_'
'fresh,_'
'clients,_'
'well-rounded_'
'communications._'
'Vibrant_'
'buffalo_'
'Bobcat_'
'Lockport,_'
'NY!_'
'Tech-Powered_'
'Invesments_'
'Range_'
'DynaLock_'
'australian_'
'Fitness,_'
'burns_'
'adams_'
'quickly._'
'renovations,_'
'Historic_'
'union,_'
'serve._'
'Legendary_'
'eguru_'
'interview_'
'enthusiasts_'
'IMGN.PRO_'
'industry!_'
'Curran_'
'upholstery_'
'Irrigation_'
'Drainage_'
'Sprinkler_'
'Watering_'
'1971_'
'ctr_'
'renown_'
'ambulance_'
'Romed_'
'Ambulance_'
'respect._'
'satisfied_'
'Eat_'
'anaerobic_'
'tanks,_'
'principle_'
'Yard_'
'strategically_'
'Mimo_'
'CG_'
'disciplines_'
'Journalists_'
'Delahaye_'
'own._'
'removals_'
'luxury,_'
'spas,_'
'safari_'
'lodges,_'
'raising_'
'blipshift_'
'sought-after_'
'Consolidated_'
'Here._'
'luxury._'
'Shaping_'
'Australiaâs_'
'publicity,_'
'celebrity_'
'Pre-Owned_'
'Brighton,_'
'Romantic_'
'Belhurst_'
'accommodations,_'
'academics_'
'lexus_'
'pt_'
'indonesia_'
'Jansen_'
'deluxe_'
'enjoyment,_'
'Deluxe_'
'added_'
'Tanner_'
'aqua_'
'Ammonia_'
'Tupps_'
'Indemnity_'
'Annenberg_'
'4K_'
'stops_'
'file_'
'URL_'
'channels,_'
'Email,_'
'routes_'
'Passage_'
'deals,_'
'printable_'
'had_'
'pleasure_'
'Me,_'
'audience._'
'Jolly_'
'consultation!_'
'Reinforcement_'
'supplier,_'
'Stafford_'
'Paleso_'
'Queensland_'
'AccountingCoach_'
'optics,_'
'Optics_'
'optic_'
'enclosures_'
'houses._'
'Cincinnati._'
'positions._'
'TechSPARK_'
'Calendar_'
'Johannesburg,_'
'Pronel_'
'MES_'
'Witness_'
'justice,_'
'poor_'
'Sequent_'
'Papaya_'
'onto_'
'vendors_'
'CMJ,_'
'LLP:_'
'prototyping,_'
'winning,_'
'Burnley_'
'evolving_'
'develop,_'
'Turning_'
'conversions._'
'mills_'
'inc.,_'
'cushion_'
'updates_'
'Avis_'
'Belfast,_'
'Joseph_'
'fosters_'
'pavement_'
'C_'
'L_'
'Samuel_'
'Hale_'
'80%_'
'Evidence-based_'
'Celia_'
'Hammond_'
'unwanted_'
'rbs_'
'RBS_'
'Auditing_'
'realtime_'
'circuit_'
'palettes_'
'Allow_'
'eager_'
'START_'
'2008,_'
'Gravitate_'
'24x7_'
'Grainda_'
'aligning_'
'tactical_'
'dependable_'
'pursuit_'
'honor_'
'freedom._'
'thread_'
'Flat_'
'rolls_'
'JKMuir_'
'distributors._'
'HiTrainer_'
'treadmill_'
'muscle_'
'field,_'
'Pentair_'
'Auckland._'
'FCA_'
'electric,_'
'BCU_'
'flying_'
'IPHS_'
'android,_'
'V-H_'
'Autodoprava_'
'spol._'
'Rugby_'
'Players,_'
'SmithPrint_'
'reproductive_'
'Ft_'
'Lauderdale,_'
'Hydromantis_'
'Modeling_'
'Contentsumo.com_'
'logo._'
'BrandBucket_'
'Colortech_'
'Acredale_'
'opening_'
'rethinking_'
'asset,_'
'skylights_'
'VELUX_'
'flat_'
'glass,_'
'Rooflights_'
'Fuelogic_'
'packages._'
'twist_'
'images_'
'story._'
'Sustainment_'
'Associated_'
'oficial_'
'holder_'
'Vermonster_'
'Thousands_'
'hour._'
'Matter_'
'In-House_'
'Teams_'
'Optimise_'
'Parsippany,_'
'child's_'
'sensory_'
'processing,_'
'Tel:_'
'iPower_'
'Colony_'
'BAUX_'
'absorbers_'
'Sweden,_'
'Macau,_'
'Shanghai,_'
'minimise_'
'exposure_'
'club._'
'clubs_'
'Retain_'
'Parker_'
'case._'
'SOM_'
'clinical-stage_'
'accelerated_'
'unmet_'
'Via_'
'Tribunali_'
'embodies_'
'quest_'
'Quest_'
'thin_'
'Electrician_'
'dairy,_'
'Fresh,_'
'bottled_'
'cream,_'
'milk,_'
'Parramatta_'
'Cabramatta_'
'citizens_'
'benchmark_'
'Numo_'
'creativity_'
'Zeffert_'
'Caterer_'
'Capturing,_'
'Debugging_'
'tests,_'
'skiing,_'
'B.C._'
'conveyors_'
'belt_'
'Engineering._'
'Airport,_'
'Foresiight_'
'Tulip_'
'Potter_'
'Roemer_'
'must_'
'genuinely_'
'NB_'
'packages!_'
'a1_'
'consortium_'
'rider_'
'Cavallo_'
'Comfort._'
'180_'
'Guarantee._'
'Mini_'
'I'm_'
'Here,_'
'Behel_'
'Clara_'
'collision_'
'lifetime_'
'warranty._'
'Khoroni_'
'Resort._'
'NYC,_'
'LAPOINTE_'
'Breakthroughs_'
'Healing_'
'elements_'
'Burlington_'
'Kital_'
'Tristar_'
'Aerospace,_'
'outsourced_'
'Vets_'
'finds_'
'STS_'
'2D_'
'Washington's_'
'Welding_'
'telematics_'
'visibility,_'
'Benefacts_'
'Maths_'
'deserve._'
'Tuition,_'
'Tuition_'
'pittsburgh_'
'city’s_'
'Envigor_'
'choice,_'
'Stow_'
'integrated,_'
'Purple_'
'Grazing_'
'ez_'
'fly_'
'underserved_'
'sales-ready_'
'300+_'
'assistants_'
'Certificate_'
'Huck_'
'Finn_'
'Albany,_'
'Bartlett's_'
'Farm,_'
'Truly_'
'news._'
'Classroom_'
'application,_'
'enterprise,_'
'orthopaedic_'
'family’s_'
'orthopedic_'
'Gather_'
'LifePoint_'
'Obus_'
'fibres_'
'skirts,_'
'pants,_'
'wearables_'
'Washroom_'
'EcoSMART_'
'Kittrich_'
'EWE_'
'Tec_'
'Hotdrinks_'
'Moffett_'
'houston_'
'priority_'
'MSc_'
'Economics_'
'shipping,_'
'Ensperity_'
'Soltic_'
'technology-driven_'
'NRT_'
'home-to-school_'
'Massachusetts,_'
'Act!_'
'sensors,_'
'Incorporated_'
'barcode_'
'Scanners,_'
'Groups_'
'Drawer_'
'Force_'
'Mff_'
'Singapore,_'
'Indonesia,_'
'elements,_'
'Hour,_'
'limousine_'
'888-EURO-LIMO_'
'settings._'
'Unlicensed_'
'Funny_'
'Hindhead_'
'sl_'
'Inspirational_'
'renovation,_'
'DIY._'
'franchising_'
'FAI_'
'franchisee_'
'sustainable._'
'Portsmouth_'
'Humble,_'
'Daniels_'
'Roberts_'
'S2S_'
'Destruction_'
'hired._'
'done._'
'memorabilia._'
'Powerark_'
'QLD_'
'WA._'
'competent,_'
'consists_'
'dreams._'
'notch_'
'Brokerage_'
'Servers_'
'authors_'
'Authors_'
'hamilton_'
'DC._'
'Relax_'
'era._'
'Hampden-Wilbraham_'
'Maya_'
'Scopic_'
'Amsterdam,_'
'goals!_'
'January_'
'Merrick_'
'Towle_'
'and,_'
'Spine_'
'peterson_'
'Terry-Peterson_'
'success,_'
'Coin_'
'CloudPeeps_'
'CZAR_'
'company:_'
'Paris,_'
'Copenhagen._'
'hawaii_'
'Hawai'i_'
'Alpari_'
'CFDs,_'
'stocks,_'
'metals._'
'pop-up_'
'Pop-Up_'
'Breaks_'
'Yield._'
'Integration._'
'FAIRTIQ_'
'Bitbotic.com_'
'ACCELL_'
'warranties._'
'Celebrating_'
'britain_'
'appreciation_'
'Brochure_'
'LCD_'
'lifts,_'
'tire_'
'brake_'
'Sheriton_'
'Shoes,_'
'pair_'
'Womens_'
'relational_'
'Refined_'
'helpful_'
'LibertyX_'
'kiosks._'
'hg_'
'G_'
'Atto_'
'brightest_'
'DESIGN_'
'36_'
'Pension_'
'Linscomb_'
'website!_'
'intelligence._'
'cooperative_'
'specialisation_'
'Alcott_'
'modeling_'
'Businesses,_'
'Homes._'
'Lioncrest_'
'fz_'
'Skybox_'
'Mixte_'
'nice_'
'W6_'
'Hutter_'
'Ipswich_'
'started!_'
'eSafe_'
'imaging,_'
'leakage_'
'government._'
'Engage_'
'stamford_'
'Chabad_'
'Judaism,_'
'nationwide,_'
'Shakespeare_'
'collins_'
'shopping,_'
'Info_'
'Studio4web_'
'profesionalne_'
'usluge_'
'Store,_'
'ügynökség_'
'powerful,_'
'Romeo_'
'churches_'
'Durham,_'
'NC._'
'Richard_'
'OD_'
'Jill_'
'Paragon_'
'disease._'
'Petersburg_'
'Messana_'
'Radiant_'
'ceiling_'
'Ray_'
'Magic_'
'panels_'
'linking_'
'Nevada_'
'parents._'
'hour_'
'fingertips_'
'whale_'
'Austin's_'
'1988._'
'montgomery_'
'AUS_'
'movie_'
'Inflatable_'
'Screens_'
'tractors_'
'Captain_'
'1994,_'
'compact_'
'Compact_'
'ABTA_'
'ATOL_'
'presto_'
'inspection._'
'Vectornate_'
'operations._'
'kjaer_'
'motorcycles_'
'Pours,_'
'Rajendra_'
'(RAU)_'
'Zócalo_'
'reed_'
'Relations,_'
'national,_'
'Ogura_'
'3,000_'
'farms,_'
'Fir,_'
'Fir_'
'Proctors_'
'Borough,_'
'North,_'
'goldsmith_'
'jewellers_'
'Goldsmith_'
'ray_'
'dive_'
'dives,_'
'Kona_'
'Evaluation_'
'Doepker_'
'Hankey_'
'CSSP_'
'border_'
'Framed_'
'bear_'
'Cabins_'
'ABBA_'
'Group’s_'
'nigeria_'
'CV_'
'builder._'
'Designated_'
'Bootique_'
'eastern_'
'Pre-owned_'
'GE_'
'situations_'
'Sorodo_'
'B2C_'
'FinTech_'
'Burgess_'
'Massachusetts._'
'staffed_'
'India-_'
'acupuncture_'
'42,_'
'stabilization_'
'Louisville's_'
'homegrown_'
'flemington_'
'shoppers_'
'QUALITY_'
'work-based_'
'tile_'
'flooring._'
'reviews._'
'Pittsburgh,_'
'Scarborough_'
'$40,000_'
'PayPal_'
'needed._'
'straightforward_'
'Shaeffer_'
'Vail,_'
'AeroLEDs_'
'DLA_'
'API._'
'responses_'
'billing._'
'Clone_'
'Script_'
'clone_'
'reputable_'
'Raton_'
'Vaughan_'
'Videoplus_'
'Transcription_'
'transcripts_'
'Goldrich_'
'Chandalar_'
'reyes_'
'two-way_'
'Responders_'
'Fractal_'
'processors_'
'capabilities._'
'Effects_'
'D2_'
'mindset._'
'execute,_'
'Software:_'
'hangout_'
'Hundreds_'
'Hangout_'
'Kombrewcha_'
'Sugar_'
'Brewed_'
'Patchogue,_'
'KOS_'
'HPM_'
'Representing_'
'Consumers_'
'ends_'
'Anti_'
'respite_'
'memory_'
'loss,_'
'Alzheimer’s_'
'Griffin_'
'Radiators_'
'Lincoln,_'
'Buick,_'
'Chrysler,_'
'sports,_'
'changes_'
'people's_'
'themselves_'
'Underwriting_'
'Britain's_'
'Institution_'
'Optimist_'
'Bournemouth_'
'Bernic_'
'mind:_'
'interactions_'
'55_'
'Papilio_'
'rugs,_'
'Rugs_'
'perspectives_'
'be._'
'fruits,_'
'WebComforts_'
'Australians_'
'TIGG_'
'filters_'
'remediation_'
'treatment._'
'Maguire's_'
'2014,_'
'Edmmond_'
'favorites_'
'HealthForward_'
'payer_'
'sponsors_'
'enhances_'
'score_'
'size._'
'Delta_'
'ELITE_'
'Blank_'
'Versatile_'
'event._'
'Adamis_'
'Pharmaceuticals_'
'first._'
'estimate!_'
'Gerber_'
'linked_'
'Bjørn_'
'Thorsen_'
'Wemyss_'
'Malts_'
'whisky_'
'Launch_'
'Exterior_'
'ethically_'
'textiles_'
'SayanGTextiles.com_'
'ContentKing_'
'engines_'
'bio-hybrid_'
'Music®_'
'band_'
'studios,_'
'Than_'
'Pamela_'
'leggings,_'
'hygiene_'
'Chespack_'
'KOEL_'
'iGreen_'
'Dakota._'
'Events,_'
'Spokane,_'
'Appliance_'
'tables,_'
'LoveYourself_'
'volunteers_'
'contingent_'
'continuum_'
'4U_'
'Borton_'
'State._'
'VirtualLab_'
'Fusion_'
'Springfield,_'
'Williamson_'
'casa_'
'Virtualisation_'
'Reading,_'
'architect_'
'location._'
'film,_'
'guide._'
'Mary's_'
'students!_'
'1976,_'
'WDI_'
'Furnishing_'
'ghost_'
'Ghost_'
'Multipipe_'
'AthenaInvest_'
'Managment_'
'terminals_'
'Automatically_'
'Much_'
'Quelfire_'
'1977_'
'equipments_'
'hospitals,_'
'London:_'
'Treatment,_'
';_'
'Reuse_'
'integrator._'
'Blackjack_'
'Mint_'
'GOOD_'
'comprehensive,_'
'consistent,_'
'Leostream_'
'desktops_'
'Lubbock,_'
'Energy:_'
'choosing_'
'reviewed_'
'download_'
'benelux_'
'Devotion_'
'WINESTONE_'
'LAVAL_'
'Advice._'
'profile._'
'mitigating_'
'chain,_'
'mergers_'
'acquisitions,_'
'Austria_'
'Alpin_'
'accommodations_'
'workmanship,_'
'single-family_'
'apartment,_'
'distinctive_'
'Pine_'
'pumping_'
'Weelborg_'
'inventory._'
'MN,_'
'Bestlaminate_'
'flooring,_'
'Laminate_'
'midlands_'
'Annie_'
'£75._'
'France_'
'interpreters_'
'Salem,_'
'welcome!_'
'Domain_'
'Consultation._'
'Goldman_'
'Daszkal,_'
'fully-integrated_'
'wilson_'
'setup,_'
'removal,_'
'exploring_'
'McMinnville,_'
'Northwest._'
'Offset_'
'Trans-iX_'
'yellow_'
'folder_'
'Folder_'
'disrupt_'
'report_'
'Nilson_'
'Report_'
'Statistics_'
'Highlands,_'
'Rentals._'
'Bali,_'
'$100._'
'Fat_'
'lincoln_'
'Blackstock_'
'MBS_'
'CVS_'
'i4Tradies_'
'cleaners,_'
'invoicing._'
'Trades_'
'predictable_'
'emails,_'
'p_'
'Guild_'
'Pellegrini_'
'Equipments,_'
'hoist_'
'Kunik_'
'Morsier_'
'ecology_'
'testers,_'
'OkadaBooks_'
'utilize_'
'dine_'
'Medhurst_'
'Tasting_'
'Nissan,_'
'DL_'
'Delamar_'
'Penmor_'
'Lithographers_'
'England’s_'
'publications,_'
'collateral,_'
'heirloom_'
'Seeds_'
'equals_'
'Woodinville,_'
'Washington._'
'neighborhood_'
'thinkers,_'
'Piñon_'
'NonVerbals_'
'Trainwest_'
'Carley_'
'Multi_'
'Midnight_'
'Brighton._'
'Crown_'
'from._'
'Syncrosome_'
'Gastro_'
'Shulman_'
'agile,_'
'perception_'
'kurzban_'
'Kurzban_'
'Malpractice_'
'Resins_'
'CircleLoop_'
'You've_'
'else,_'
'Saak_'
'Damien_'
'Greer_'
'Lunchbox_'
'aiming_'
'collaboration._'
'Gen_'
'Fermob_'
'Bon_'
'Marché_'
'Colorful_'
'RGA_'
'boxes,_'
'Tech4PI_'
'freeman_'
'Feeling_'
'Bare_'
'Breach_'
'storefront_'
'insights,_'
'i2i_'
'Insulated_'
'glasses_'
'Btech_'
'Implementation,_'
'VTR_'
'FX_'
'DDoS_'
'way,_'
'Oakwood_'
'watershed_'
'recycled_'
'Billboards_'
'billboard_'
'Vegas._'
'air,_'
'harmony_'
'Asclepios_'
'gym,_'
'Opportunity_'
'Qwince_'
'Skylights_'
'redwood_'
'woodchippers_'
'‘go_'
'to’_'
'woodchippers._'
'show,_'
'PA's_'
'hundred_'
'Nature_'
'July_'
'Methods_'
'LEK_'
'Pratville_'
'Infrared360®_'
'administration,_'
'transactions,_'
'Middleware_'
'Axion_'
'MO,_'
'nationally,_'
'Streak_'
'memorabilia_'
'GMP_'
'driven._'
'TFX_'
'maui_'
'Enteris_'
'peptide_'
'embraces_'
'relaxed_'
'setting._'
'InfoTrie_'
'(previously_'
'ltd.)_'
'Developers._'
'App,_'
'PHP,_'
'evolved_'
'overwhelming_'
'amount_'
'decide_'
'Emitting_'
'ultra-high_'
'Siru_'
'phone._'
'Perkins_'
'Plex_'
'Dundalk_'
'easier,_'
'police_'
'convergence_'
'FREE!_'
'DDS_'
'Purifoy_'
'Lupton,_'
'multi-lingual_'
'SECUDRIVE_'
'DRM,_'
'confidential_'
'Guru_'
'Manufacturer,_'
'exporter_'
'submersible_'
'og_'
'Velkommen_'
'til_'
'Week_'
'jimbaran_'
'enough_'
'plenty_'
'Luxurious_'
'Efferent_'
'TravelSafe_'
'trip._'
'POP_'
'emotion_'
'picture_'
'there's_'
'prosperity_'
'remain_'
'require_'
'rex_'
'sealants,_'
'Seventy9_'
'Python,_'
'dev_'
'departments,_'
'seek_'
'question_'
'Some_'
'Tailor_'
'Cruise_'
'Toyota's_'
'Coon_'
'Blaine,_'
'Andover,_'
'airlines_'
'drills_'
'SIXT_'
'summit_'
'Summit_'
'Columbia,_'
'ming_'
'Ming_'
'factory._'
'Schwarzschild_'
'Charlottesville,_'
'Agoos_'
'Lovera_'
'clientele._'
'suspension_'
'Engineered_'
'elt_'
'beams,_'
'pralines_'
'Aunt_'
'Sally's_'
'Praline_'
'traditional,_'
'wide._'
'female_'
'RPMI_'
'resulting_'
'Polka_'
'Dot_'
'Moss_'
'Fallon_'
'naturals_'
'Exporter_'
'Oils,_'
'Exporting_'
'vegan,_'
'Matthews,_'
'Vertex_'
'objectives_'
'impactful_'
'Forrester-Hyde_'
'nationally._'
'Advant_'
'Technology:_'
'sorting_'
'participate_'
'Kildare_'
'weeks!_'
'Nexetic_'
'backupRead_'
'resellers_'
'XCORE®_'
'half_'
'minute_'
'workout._'
'shore_'
'Count_'
'Cardiology_'
'regarding_'
'cardiac_'
'cpa_'
'Wendroff_'
'Virginia,_'
'Omnidots_'
'vibrations_'
'all-in-1_'
'apc_'
'Schorr_'
'APC_'
'cfo_'
'Sofitto_'
'merge_'
'ATMs_'
'terminals,_'
'user-friendly_'
'Mile_'
'conventional_'
'HP,_'
'Oakland_'
'Macomb_'
'Metropolitan_'
'unsafe_'
'Advantage_'
'61_'
'Pau_'
'Hana_'
'Supply._'
'fishing,_'
'yoga,_'
'surfing,_'
'kids._'
'AFA_'
'shaved_'
'stands,_'
'succeed._'
'Busy_'
'EastCoast_'
'roller_'
'Rule_'
'remodeling,_'
'1987._'
'competitively_'
'priced_'
'Skip_'
'installs,_'
'surgeon_'
'RAzone_'
'option_'
'depend_'
'Relative_'
'Respite_'
'Welsh_'
'Americom_'
'australasia_'
'BodyMatters_'
'Australasia_'
'disorders_'
'Soroptimist_'
'Futbol_'
'Cult_'
'jerseys,_'
'utilising_'
'Soccer_'
'Retro_'
'pilots_'
'Pilots_'
'(AIPA)_'
'safeguard_'
'frozen_'
'Lacamanda_'
'26_'
'integrations_'
'Fencing_'
'utilities,_'
'TraceNet_'
'par_'
'AZ._'
'Damosa_'
'Davao_'
'ME2C_'
'insight,_'
'coalition_'
'LIVE_'
'TO_'
'workshops,_'
'Coalition_'
'seating,_'
'desks,_'
'primarily_'
'lime_'
'SAKG_'
'Lime_'
'Mentor_'
'recreational_'
'Playmore_'
'prestigious_'
'Investor_'
'Cabernet_'
'SIB_'
'Costs_'
'Installers_'
'saturn_'
'Saturn_'
'RxC_'
'Pharmaceutical_'
'Imagga_'
'API,_'
'customer-focused_'
'refresh_'
'newest,_'
'Props_'
'STUDIOS_'
'Frenzy_'
'driven,_'
'AssetSmart_'
'streamlined_'
'enterprise-class_'
'suite._'
'SMART_'
'Supplies._'
'Teachers_'
'Xclusive_'
'MINDS_'
'albany_'
'Thomas|Riddle_'
'Olympia,_'
'Tumwater_'
'townhomes,_'
'netherlands_'
'NAG_'
'best-selling_'
'maximizes_'
'coordination_'
'Shichida_'
'500,000_'
'after-school_'
'Victoria,_'
'CREATIVE_'
'hong_'
'kong_'
'seaside_'
'Ana_'
'beach,_'
'center._'
'Lagos_'
'Mansfield,_'
'glacier_'
'Glacier_'
'hikes_'
'customisation_'
'off-the-shelf_'
'hacker_'
'murphy_'
'defense._'
'E._'
'kensington_'
'feet_'
'Sigmatrek_'
'Investwide_'
'catalogue,_'
'beds,_'
'Weekly_'
'ICoreGo_'
'orange_'
'Women’s_'
'transparent,_'
'digital._'
'Zimple_'
'(EVA)_'
'representative_'
'dinosaur_'
'Lenwade,_'
'Secret_'
'Danetti_'
'Chairs_'
'Sanford_'
'Indee_'
'audiovisual_'
'mixing_'
'organization's_'
'vessel_'
'clarity_'
'>_'
'EASAC_'
'society._'
'eCuras_'
'scope_'
'influence._'
'george_'
'chance_'
'grow!_'
'market-leading_'
'Web-based_'
'jason_'
'Shoe_'
'donations_'
'Keynes._'
'Quality,_'
'Connectors_'
'Tejas_'
'Taman_'
'included._'
'payment,_'
'KADA.in_'
'Smylies_'
'JetHeat,_'
'Dominic's_'
'College,_'
'Catholic_'
'Trust._'
'MAI_'
'CBSE_'
'Zella_'
'power._'
'Teach_'
'reason_'
'forensics_'
'Scientists_'
'Skate_'
'$75_'
'won’t_'
'E-Commerce_'
'precission_'
'prototyping_'
'process,_'
'SMA_'
'Myanmar._'
'beginner_'
'Ticketmedia_'
'authority_'
'touch!_'
'hiHedge,_'
'HBC_'
'Yomojo_'
'stellar_'
'outerwear_'
'running,_'
'teli_'
'complex._'
'Using_'
'Kihaa_'
'naturally_'
'Maldives_'
'click_'
'family!_'
'PM_'
'Braces_'
'Beaumont,_'
'pvt.ltd_'
'Bangalore,HR_'
'sent_'
'considering_'
'first-time_'
'expect._'
'eBay,_'
'SportsAble_'
'1968._'
'Krotos_'
'Pro,_'
'Libraries_'
'Prefix_'
'conservatory_'
'improvement_'
'Speak_'
'enquire_'
'Roofs_'
'Improvements_'
'Kings_'
'Abatement_'
'geothermal_'
'Jamavar_'
'tandem_'
'Molinare_'
'drama,_'
'1981_'
'Millbury,_'
'validation_'
'Stanwell_'
'Acorn_'
'Imports_'
'thomson_'
'Therm-O-Rock_'
'Hikvision_'
'InVMA_'
'Investor._'
'HiFi_'
'childrens_'
'think-tank_'
'Tau_'
'Radiation_'
'Bohemia_'
'homeware_'
'soul._'
'Homeware_'
'Novicom_'
'scoring_'
'Boosteroid_'
'gaming._'
'Norvet_'
'Barcelona,_'
'influential_'
'entrepreneur_'
'efforts_'
'how-to_'
'travelers_'
'once-in-a-lifetime_'
'holiday._'
'Nicaragua_'
'Medico_'
'Garments_'
'Post-Op_'
'girdle,_'
'Repair._'
'ISO9001_'
'Kohinoor_'
'5000_'
'Hal_'
'II_'
'Omega,_'
'Cartier,_'
'few._'
'goods,_'
'services)_'
'Vanity_'
'too!_'
'scrubs_'
'Smith,_'
'Salley_'
'Point,_'
'Ideadunes_'
'Zamira_'
'disinfection_'
'acknowledged_'
'mentoring_'
'Trader_'
'Routers_'
'LIPI_'
'Platform,_'
'WHITE_'
'GraMedica_'
'Soul_'
'rupitrN_'
'Assist_'
'minimum_'
'Continue_'
'DSLR_'
'AEL_'
'Positioning_'
'Zhongyuan_'
'machine._'
'Local,_'
'win-win_'
'situation,_'
'ownership_'
'Italy._'
'Raine_'
'Horne_'
'group._'
'fruit,_'
'veg_'
'home!_'
'Halberdier_'
'decals_'
'Dali_'
'Decals_'
'You’ll_'
'localization_'
'notaries_'
'Notaries_'
'notary,_'
'p&p_'
'P&P_'
'Infotech_'
'itw_'
'Wi-Charge_'
'wallets_'
'Attendance_'
'on-premise_'
'Destinee_'
'Intuitive,_'
'Ethnography_'
'Qualitative_'
'Hajj_'
'umrah_'
'Flywell_'
'well,_'
'Mighty_'
'Roar_'
'Nualtra_'
'samples._'
'Nutritional_'
'repeatable,_'
'tested_'
'inexpensive_'
'soon_'
'taken_'
'traders_'
'32_'
'proposal_'
'Play,_'
'Multiplayer_'
'Games._'
'together,_'
'Lally_'
'Lansing,_'
'Michigan,_'
'improve,_'
'collaboration,_'
'Learning,_'
'Consultancy,_'
'analyst_'
'cost-effective,_'
'Credits_'
'Claim_'
'wonders_'
'Treks_'
'Everest_'
'Annapurna_'
'Waiting_'
'stores,_'
'oils_'
'AGENCY_'
'eWEEK_'
'ahead_'
'Oxford_'
'accepted._'
'Mississippi_'
'finder_'
'Conferences,_'
'ICO_'
'Shout_'
'hungry_'
'isn't_'
'Comfort,_'
'companies'_'
'Prospecting_'
'RUMUR_'
'Appraisal_'
'appraisals_'
'boosts_'
'Ascent_'
'Pte_'
'Telematics_'
'IPAX_'
'Sanitizing_'
'Rizzo_'
'1977,_'
'climate_'
'Climate_'
'streams._'
'"The_'
'Keightley_'
'Rafael_'
'Marrero_'
'JRG_'
'Transportation,_'
'too._'
'Boise,_'
'including,_'
'High-tech_'
'Cloud._'
'Herbs_'
'Cornerstone_'
'Pensions,_'
'Investments,_'
'Mortgages._'
'seal_'
'michigan_'
'roofing,_'
'Seal_'
'Vale_'
'Carvoeiro,_'
'Elegant_'
'GenRenew_'
'Prague,_'
'Lendoit_'
'decentralized_'
'P2P_'
'Utah,_'
'Colorado,_'
'dealer!_'
'here!_'
'Ithaca,_'
'Auburn,_'
'Syracuse_'
'Elmira_'
'Syracuse,_'
'logging,_'
'nu_'
'brooklyn_'
'NU_'
'Russian_'
'environmentally_'
'$100_'
'Adam's_'
'Exterminators_'
'Recognized_'
'vermont_'
'mn_'
'Theaters_'
'pajcic_'
'45_'
'2006,_'
'Nationwide_'
'philadelphia_'
'Pennsylvania's_'
'Ferrari_'
'Buckeye_'
'car._'
'OH._'
'ranch_'
'Idaho._'
'appointed_'
'Accordant_'
'effortless_'
'Workspace_'
'warrior_'
'speaking_'
'Training._'
'invested_'
'economy,_'
'leader._'
'hydronic_'
'billboards,_'
'eminent_'
'Imminent_'
'Bonaventure's_'
'"Live,_'
'Presence_'
'Lord"_'
'infrared_'
'Spectroscopy_'
'Huot_'
'Cutting_'
'Feilden_'
'Fowles._'
'FSC_'
'Ethically_'
'Samples_'
'Isomeric_'
'uncover_'
'intriguing_'
'places,_'
'Sail,_'
'Ski,_'
'promotion_'
'Vendetti_'
'accommodation._'
'halls_'
'prescription_'
'paperwork._'
'beating_'
'Beating_'
'manager._'
'webinars_'
'LeafGuard_'
'Say_'
'giftware_'
'StaySteady_'
'cereal_'
'mechanical,_'
'Gunther's_'
'paws_'
'dogs_'
'Donate_'
'Dogs_'
'damage_'
'Kiwi_'
'Desert_'
'ellis_'
'ERP._'
'med_'
'Med_'
'Shield,_'
'Buying,_'
'Prince_'
'Thomas_'
'hunt_'
'Glenville_'
'Amy_'
'Aldrich_'
'Netlink_'
'Nature's_'
'Bio_'
'pubs_'
'rooms._'
'Rooms_'
'finish_'
'galvanized_'
'Galvanizing_'
'presentations,_'
'AthliOS_'
'england_'
'Spooky_'
'haunted_'
'Megnet_'
'compatible_'
'Shores,_'
'Features_'
'convenience._'
'final_'
'forum_'
'Shire_'
'verve_'
'result._'
'moon_'
'CeDUR_'
'shake_'
'shingles,_'
'asphalt_'
'shakes_'
'Shake_'
'Martech_'
'collected_'
'😁_'
'arts,_'
'Plano,_'
'pixel_'
'Hey_'
'chat!_'
'Ambitious_'
'CineD_'
'Radiators,_'
'Cores,_'
'Tanks_'
'Coatings,_'
'Arrowhead_'
'distributes_'
'crm_'
'Eligeo_'
'cinema,_'
'client's_'
'Stride_'
'Prism_'
'timothy_'
'SmartDocs_'
'ECM,_'
'Payables_'
'Vendor_'
'tracks_'
'videos._'
'Licensing_'
'laminating_'
'slip_'
'pets._'
'Commissioning_'
'factoring_'
'invoice_'
'Factoring,_'
'wayne_'
'IN,_'
'Huntington_'
'boarding_'
'awards._'
'Prettyology_'
'PocketCake_'
'Android._'
'UAE?_'
'Appristine_'
'Kellstadt_'
'executives,_'
'based,_'
'trinity_'
'(London)_'
'BCP_'
'IFA_'
'archive_'
'Paid_'
'adding_'
'Chapter_'
'grooming,_'
'mobility,_'
'Albuquerque_'
'ITAM_'
'Edmonton,_'
'piazza_'
'acura_'
'Chabowski_'
'Sensium_'
'Businesses._'
'greg_'
'realtors®_'
'Tom_'
'Claws_'
'igloo_'
'backup_'
'Sellers_'
'Enterprises,_'
'Grande_'
'Areas_'
'Storm_'
'51_'
'confusing_'
'walks_'
'Kong._'
'Replace_'
'programming_'
'hosted_'
'SIP_'
'Phones,_'
'Qxf2_'
'Efficacy_'
'refit_'
'Refit_'
'Sunnyside_'
'Grill._'
'Breakfast_'
'Lunch._'
'Crowd_'
'monarch_'
'FL._'
'Sol_'
'repairs,_'
'Graue_'
'UnitedSucces_'
'otherwise_'
'juvenile_'
'justice_'
'simple:_'
'transactions_'
'JTF_'
'kia_'
'cosmetic,_'
'Directory_'
'defense,_'
'Consultations._'
'excel_'
'Visionflex_'
'Telehealth_'
'Arlington?_'
'residents._'
'top-quality_'
'Harlo_'
'Listen_'
'FM_'
'restoration,_'
'MDL_'
'Pennsylvania,_'
'Tri_'
'Gloucestershire,_'
'outdoors_'
'boats,_'
'Boats_'
'recruiters_'
'discovered_'
'advise_'
'Goals_'
'probate,_'
'Deli_'
'ink_'
'promotions,_'
'Introducing_'
'Latus_'
'CHIO_'
'Stefania_'
'loop_'
'Shopify's_'
'retention_'
'refund._'
'year-round_'
'clinics,_'
'Xi_'
'cosmetics_'
'Abely_'
'named_'
'Fred_'
'stylefull_'
'clothing._'
'western_'
'inspirational_'
'synonymous_'
'traces_'
'date_'
'until_'
'concrete,_'
'products:_'
'tiles,_'
'enviable_'
'basis_'
'floors_'
'unrivalled_'
'gained_'
'undertake_'
'STIMULUS_'
'CATIA_'
'vault_'
'monkey_'
'Khoory_'
'FZE_'
'economical_'
'Colorado's_'
'volunteers._'
'CIVC_'
'Program,_'
'Mentoring_'
'16,_'
'B2B,_'
'nonprofits._'
'Chemlink_'
'miss_'
'expo_'
'So-Cal_'
'Pomona_'
'(HQ)_'
'rod_'
'Puente_'
'foiling_'
'boats._'
'Centro_'
'Veterinario_'
'DSL_'
'roswell_'
'Lehigh_'
'Yorkshire,_'
'Cloudpipes_'
'joining_'
'Lekker_'
'assortment_'
'Boston's_'
'Grove_'
'Informalecco_'
'Everyone._'
'accessibility_'
'seniors._'
'WordAi_'
'article_'
'does._'
'articles._'
'Deposit_'
'Loescher_'
'IL,_'
'WI._'
'Cognitiv+_'
'documents._'
'Documents_'
'Stanton_'
'Cone_'
'A.P._'
'Berg_'
'Hayden5_'
'Yorktown_'
'Archie_'
'Cochrane_'
'Billings_'
'financing._'
'MT_'
'lithium_'
'batteries._'
'Jurgens,_'
'approximately_'
'maritime,_'
'banking,_'
'Louisiana_'
'VST_'
'recalls_'
'Recalls_'
'administrative_'
'Scheduling_'
'activities,_'
'discounted_'
'play,_'
'aid_'
'All-in-one_'
'Newsletter_'
'Fostar_'
'Engineer_'
'$100B+_'
'25%_'
'mixtape_'
'premieres,_'
'TechUnido_'
'Tashman_'
'notifications_'
'Chatbot_'
'Commonwealth_'
'builds._'
'idappcom_'
'corrugated_'
'Lip_'
'balm,_'
'balm_'
'Printers,_'
'ambassador_'
'Goodearth_'
'Perth's_'
'Apartment_'
'xpress_'
'pre-clinical_'
'TorkLaw_'
'many._'
'treatments,_'
'Maryland,_'
'Humane_'
'vaccine_'
'customizable,_'
'stress-free_'
'InterWest_'
'Dbayeh,_'
'hubs._'
'economic,_'
'Silicon_'
'Bufkor_'
'Location_'
'Firmhouse_'
'stand-alone_'
'recurring_'
'Gondola_'
'Tahoe._'
'DCF_'
'exteriors_'
'people’s_'
'Kathmandu_'
'cause_'
'Sologic_'
'language,_'
'Root_'
'accommodation,_'
'One-stop_'
'Brilliance_'
'Hotelier_'
'Williamsburg,_'
'☎_'
'page's_'
'excerpt_'
'Integrating_'
'NYC._'
'Montana_'
'Collier's_'
'Indiana._'
'Löfbergs_'
'Motorcycle_'
'Vegan_'
'blends_'
'fitness._'
'los_'
'boots_'
'CA,_'
'Clinton_'
'charitable_'
'internet._'
'Tender_'
'tenders,_'
'henderson_'
'Webster_'
'packer,_'
'Valley._'
'table._'
'Sumner_'
'UXB_'
'copywriting_'
'impacted_'
'safety._'
'Resurrection_'
'SkyView_'
'coworking,_'
'Bloomington,_'
'Shared_'
'You!_'
'Armoire_'
'continuously_'
'designs._'
'featured_'
'seen_'
'Staten_'
'Queens,_'
'Bronx_'
'keystone_'
'manufacturer._'
'discipline_'
'dishes_'
'top._'
'Easier_'
'Erbil,_'
'lighting,_'
'Akron_'
'Cubicle_'
'Beast_'
'joins_'
'minimize_'
'edges,_'
'agents._'
'craft-art.com_'
'Dundee_'
'sheet,_'
'Dorset_'
'un_'
'tu_'
'i3_'
'Sippin_'
'Klerck_'
'Zippia_'
'Radius_'
'Both_'
'Like_'
'Production._'
'nail_'
'Sevenair_'
'Home._'
'bathrooms,_'
'UK-wide_'
'O'Donovan_'
'Casa_'
'asbestos_'
'systematic_'
'Systematic_'
'LakeView_'
'Pediatrician_'
'Doctor,_'
'Pediatrics_'
'Nelton_'
'Aarti_'
'real-estate_'
'dakota_'
'Stetel_'
'Roasting_'
'specifications_'
'pictures_'
'Synonymous_'
'community-led_'
'Mondo_'
'Nicelabel_'
'Pulverizer_'
'41_'
'Batteries_'
'Mackay_'
'SOLAS_'
'pixalmate_'
'stall_'
'fabricator_'
'Exhibition_'
'UMass_'
'Memorial_'
'Avante_'
'1992._'
'Claude_'
'Nolan_'
'Jacksonville,_'
'specialists,_'
'roots_'
'firmly_'
'cleaner_'
'Technologists._'
'Falcon_'
'PMP,_'
'NPI_'
'Petrocelli_'
'Nynox_'
'Borough_'
'chef_'
'ecosystem_'
'cleaners_'
'Cleaners_'
'trunked_'
'math,_'
'Jose._'
'hunting_'
'Diverso_'
'scanners,_'
'Tennis_'
'ball_'
'1877_'
'lunch,_'
'Chapel_'
'Cardiff_'
'Rodcraft_'
'workshop_'
'grinders,_'
'screwdrivers,_'
'Pneumatic_'
'tom's_'
'60+_'
'Dallas-Fort_'
'studying_'
'Eminent_'
'Tin_'
'feedback_'
'Feedback_'
'HIET_'
'Domani_'
'pottery_'
'publishers_'
'Shorthand_'
'storytelling_'
'turning_'
'NSIT_'
'Bihar_'
'diploma_'
'(Electrical_'
'cocktail_'
'Leeds-List_'
'city._'
'outsource_'
'Entry_'
'Schwab_'
'years!_'
'Salvatore's_'
'Rejuvenation_'
'can._'
'listening_'
'catalog_'
'goes_'
'possible,_'
'foods,_'
'section_'
'CASI_'
'Seniors_'
'Scharc_'
'marketplaces_'
'Rifeline_'
'marketplace._'
'Midstream_'
'proof_'
'Outpatient_'
'VA._'
'Disorder_'
'Collect_'
'surveys_'
'Speedcraft_'
'Acura,_'
'Warwick_'
'Druce_'
'Customisable_'
'indemnity_'
'contents_'
'cover._'
'pearl_'
'Diver_'
'Securitised_'
'investors,_'
'HRs_'
'GROOVE_'
'indie_'
'(OWL)_'
'Mexico,_'
'SVOD_'
'Extensive_'
'Tailored_'
'Acrylics_'
'flagship_'
'originally_'
'Contest_'
'BIC_'
'pharmaceutical,_'
'device,_'
'end-users_'
'referral_'
'HitLights_'
'experiential,_'
'Strip_'
'Lights,_'
'Accessories,_'
'change?_'
'Rehabilitation,_'
'KS._'
'TEKNA_'
'Problems_'
'DigiCommerce_'
'Eugene,_'
'Daytours4u_'
'magical_'
'attention_'
'High-quality_'
'on-time_'
'Radiology_'
'Member_'
'Satisfaction_'
'YAB_'
'2002,_'
'preparatory_'
'KIPP_'
'Calxa_'
'budgeting_'
'Xero,_'
'Brasures_'
'AEM_'
'Robots_'
'chat,_'
'Mattson/Witt_'
'intervention_'
'Intervention_'
'Baltimore's_'
'(410)_'
'Severna_'
'Kizzia_'
'BIGcontrols_'
'company’s_'
'Datanest_'
'definitive_'
'strata_'
'pawn_'
'Quik_'
'Shop,_'
'Buff_'
'Whelan_'
'Warren,_'
'SWS_'
'Smithtown_'
'invites_'
'Eureka's_'
'Sequoia_'
'onion_'
'mobilisation_'
'prototypes,_'
'fans,_'
'comfortable,_'
'OutSmart_'
'neighborhood._'
'feeling_'
'Core_'
'NextLevel_'
'cat_'
'pet's_'
'mark_'
'payne_'
'Payne_'
'Midland_'
'Lutheran_'
'dRemodeling_'
'sheridan_'
'patent_'
'Relationships_'
'lighthouse_'
'Leeds,_'
'Lighthouse_'
'humans_'
'capitalize_'
'flow,_'
'structuring_'
'mixes_'
'Evermix_'
'issue_'
'Novick_'
'Landia_'
'mixers,_'
'Sales:_'
'Families._'
'Fourth_'
'Elm_'
'relationships,_'
'wedding,_'
'blogs_'
'Bricks_'
'Gurgaon_'
'(Italy)_'
'On-Site_'
'confocal.nl_'
'camera_'
'confocal_'
'microscopy_'
'Keyade_'
'Foxton_'
'functionality_'
'Packaged_'
'Henness_'
'accidents,_'
'accountancy_'
'Manus_'
'Muslim_'
'Syria_'
'Tomorrow_'
'Diplomat_'
'private,_'
'keen_'
'dreams_'
'day!_'
'investor_'
'ICG_'
'Difference_'
'Anaheim_'
'Languages_'
'MBA,_'
'Chef,_'
'Deployment_'
'servers._'
'beck_'
'BECK_'
'SC._'
'multifamily_'
'Embroidered_'
'charges._'
'montessori_'
'AMI_'
'Wondereur_'
'NWPC_'
'P-O-P_'
'20,000_'
'Shopper_'
'1957_'
'advisory,_'
'Trendy_'
'retails_'
'Abel_'
'Goodacre_'
'Seagrass_'
'influence,_'
'Palermo_'
'Aavega_'
'preclinical_'
'NetFusion_'
'Alcon_'
'solutions)_'
'EGLtech_'
'Kovacs_'
'spec_'
'Pippa_'
'Colman_'
'injection_'
'Molding_'
'Leola_'
'visualization_'
'Reporting℠_'
'Certified._'
'turnaround._'
'Visible_'
'Gustav_'
'Headnote_'
'Itâs_'
'crafting_'
'Business._'
'BK_'
'bar,_'
'Quality._'
'Modernization_'
'Modernization,_'
'Lucia_'
'Board,_'
'Condos,_'
'Trophy_'
'Club,_'
'Jasmine_'
'O'Hare_'
'(part_'
'Water,_'
'bolton_'
'metalworking_'
'EXACT_'
'desired_'
'musicians_'
'nearshoring_'
'compared_'
'everything!_'
'examination_'
'emission_'
'Discount_'
'SOLUTIONS_'
'TPG_'
'Infrastructure._'
'CardUp_'
'expenses_'
'accepted_'
'190_'
'manning_'
'camping,_'
'sky_'
'ADEC_'
'Preview_'
'safeguarding_'
'Mobetize_'
'cross-border_'
'standards,_'
'Infiniti_'
'trust._'
'Veritas_'
'Avon_'
'Umbrellas_'
'flights_'
'CYYZ_'
'Mason's_'
'Masonry_'
'Dorin_'
'Taste_'
'Pace_'
'Studio._'
'opinion,_'
'Sports,_'
'2009,_'
'Inclan_'
'ark_'
'Cardiff._'
'DeWolf_'
'decades._'
'Wire_'
'Piece_'
'Pricing_'
'UTT_'
'Bluegrass_'
'help,_'
'dhama_'
'Revolutionizing_'
'Santiago_'
'Chile_'
'one-on-one_'
'line._'
'INTO_'
'170_'
'Easy!_'
'Hawthorne_'
'ABA_'
'LaraNet_'
'plastics_'
'Purity_'
'Attendant_'
'Southampton_'
'spinouts_'
'Champion_'
'Social,_'
'Hacking_'
'Typical_'
'(905)_'
'Ierfino_'
'pan_'
'Panera_'
'season_'
'addiction._'
'Level_'
'base._'
'Instruments_'
'SITEOPS_'
'Rozum_'
'milwaukee_'
'monster_'
'"Product_'
'Novoptim_'
'Lightning_'
'eLearning,_'
'transporting_'
'forces_'
'nationally-recognized_'
'Jack_'
'regeneration_'
'Cambridge,_'
'AMML_'
'minerals_'
'unlock_'
'Greg_'
'Gilbert_'
'fuss_'
'Hai_'
'Au_'
'Halong_'
'Seaplane_'
'online!_'
'Prototypo_'
'Watan_'
'gin_'
'Copperhead_'
'PulaTech_'
'Integration,_'
'JT_'
'Independent,_'
'fee-only_'
'Gray_'
'die_'
'Laugh_'
'improv_'
'theatre,_'
'workflow,_'
'medals_'
'forms._'
'Innes_'
'Nottinghamshire_'
'Tetrade_'
'ReVibe_'
'DesignBold_'
'operation_'
'southwestern_'
'Tennessee._'
'Inn4Science_'
'personalize_'
'Conexie_'
'Wholesaler_'
'preschool_'
'acadiana_'
'Scott,_'
'NEW_'
'bariatric_'
'Haystacks_'
'purchase,_'
'(NSW)_'
'Azull_'
'Cabo_'
'519_'
'magnets_'
'Dowling_'
'FinSquare_'
'botanicals_'
'Natural,_'
'BRS_'
'Whole_'
'Parachute_'
'volatility_'
'stay,_'
'Matching_'
'Ionycs_'
'Chief_'
'Pawscout_'
'Tag_'
'profiles,_'
'JDJ_'
'reach._'
'bhd._'
'eMarket_'
'BlueInventure_'
'PRGV_'
'Maui's_'
'Demand,_'
'Going_'
'silk_'
'Optometry_'
'jackpot_'
'Jackpot_'
'Rising_'
'Haller_'
'again._'
'ESI_'
'Rugged_'
'Exhibit_'
'interiors._'
'Tabaldi_'
'Affinity_'
'Cabinets_'
'nurseries_'
'chicago_'
'Display_'
'identity._'
'conversation_'
'Dialpad_'
'Firefly_'
'noise._'
'Generators_'
'IVALO.COM_'
'evaluations_'
'Scotts_'
'Planters_'
'Silicone_'
'Insulators_'
'Granite,_'
'Porcelain_'
'designers._'
'Marble,_'
'Beluga_'
'TMS,_'
'EuroTracs_'
'paper,_'
'metal,_'
'Breathing_'
'condo,_'
'lot,_'
'Philippine_'
'Wedding,_'
'501(c)(3)_'
'Families_'
'Affected_'
'1959._'
'loaders._'
'Detectives_'
'Surgeons_'
'crematory_'
'Cloverdale_'
'Cemetery_'
'anytime_'
'Ataraxis_'
'--_'
'Commuter_'
'invented_'
'upper_'
'men._'
'Crossfit_'
'better,_'
'excited_'
'Hawke's_'
'status,_'
'admissions_'
'Aura_'
'Milan,_'
'1996._'
'Bedfords_'
'character_'
'Screening_'
'Gyratory_'
'cuticle_'
'crop_'
'Energus_'
'Novinger's_'
'panels,_'
'unitized_'
'curtain_'
'framing,_'
'Canvass_'
'reports,_'
'<meta_'
'Landlords,_'
'inland_'
'Ph:_'
'Crime,_'
'coins_'
'X2_'
'Kawhi_'
'pre_'
'Myanmar_'
'RAM_'
'Mitsubishi_'
'Contractor,_'
'Fullcube_'
'playbook_'
'Nare_'
')_'
'Venerdi_'
'bread_'
'aesthetics_'
'Botox_'
'Fondazione_'
'Ergo,_'
'Il_'
'MTM_'
'(Methods-Time_'
'Measurement)_'
'experiential_'
'bethany_'
'StarEvents_'
'hook_'
'Edward_'
'Pearce_'
'Tipton_'
'mats,_'
'Uniform_'
'WebMarkets_'
'awareness,_'
'generations._'
'Pixako_'
'Blu-ray_'
'M.2_'
'disc_'
'Vermeer_'
'781_'
'Gambado_'
'Aztecs_'
'powering_'
'deployment_'
'Carson_'
'pontiac_'
'volvo_'
'Inspections_'
'GW+Co_'
'Cities,_'
'Janeiro_'
'Garbage_'
'moms_'
'savoury_'
'recipes_'
'molasses._'
'dog._'
'FIMCO_'
'Sprayers_'
'heights._'
'Prima_'
'hospital._'
'SwissCognitive_'
'wants_'
'Intelligence._'
'robot_'
'festivals,_'
'Safeharbor_'
'Cass_'
'Hayward_'
'bridges._'
'Charter,_'
'Fractional_'
'Sale._'
'ITM_'
'KVM_'
'Cables,_'
'Alexa._'
'Streams?_'
'below_'
'wa_'
'lee_'
'Hing_'
'Wa_'
'Retailer_'
'treating_'
'EBSavvy_'
'Close_'
'Coppenrath_'
'Wiese:_'
'bakery_'
'message._'
'revenue._'
'PBX_'
'Nunki_'
'PAR_'
'insulation_'
'visuals_'
'Molina_'
'concert_'
'Riva_'
'bed_'
'earth._'
'Hanseaticsoft_'
'enjoyable_'
'ShelterTech_'
'experiencing_'
'homelessness_'
'FOGAL_'
'legwear_'
'salads_'
'Cathwell_'
'cathodic_'
'celebrating_'
'Michigan's_'
'licenses_'
'CORAS_'
'Dennison_'
'Pecora_'
'Bianca_'
'tap_'
'Recycled_'
'Hamilton,_'
'creations_'
'Nile_'
'roofers_'
'bouw_'
'installatie_'
'Informatie_'
'Braemar_'
'Tesorio_'
'Andrews_'
'meal._'
'Carlock_'
'Tupelo_'
'Saltillo,_'
'Tupelo,_'
'Wakefields_'
'invoicing_'
'Optimile_'
'Impendulo_'
'Changing_'
'pvt.ltd._'
'Trainings_'
'Westminster_'
'Incisiv_'
'loss._'
'regrowth_'
'visually_'
'Constant_'
'CMMS_'
'OR._'
'Burch's_'
'Mens_'
'Cradle_'
'evidence-based_'
'Lucie,_'
'obqo_'
'competition_'
'Rosendorff_'
'committee_'
'Yearbook_'
'CADILLAC_'
'NEWTOWN_'
'Moja_'
'feedfeed,_'
'cook_'
'Ltd,_'
'say_'
'sculpture_'
'Countries_'
'Adaltas_'
'Cloud,_'
'section._'
'Jax_'
'JetPort_'
'Cecil_'
'summittires.com_'
'Inovatica_'
'Top-notch_'
'Atfarm_'
'monitor_'
'harris_'
'TourMeAway_'
'walking_'
'tour._'
'relationships._'
'Ramada_'
'Wyndham_'
'Coldfield_'
'myles_'
'Myles_'
'physically_'
'boot_'
'Boot_'
'fakkel_'
'WeRecover_'
'Fertilisers_'
'(RLF)_'
'Unmatched_'
'allen_'
'Sarasota,_'
'Villagio_'
'Lapoint_'
'trips_'
'high-yield_'
'$10k_'
'Caymus_'
'Lower-Middle_'
'Sheraton_'
'Victorian_'
'wolfe_'
'Icebox_'
'shouldn’t_'
'MyLoanCare_'
'ROVENSYS_'
'endless_'
'Virgin_'
'Islands_'
'SADC_'
'governments,_'
'sees_'
'backgrounds._'
'step-by-step_'
'Wundertax_'
'philanthropy_'
'charity._'
'Philanthropy_'
'Vcare_'
'Freeplay_'
'weeks._'
'NACPB_'
'Branson_'
'Contamination._'
'Quantitative_'
'PCR_'
'Accurate_'
'genetic_'
'packages,_'
'controlled_'
'cohen_'
'R.A._'
'Cohen_'
'colleagues_'
'invite_'
'Cupcakes_'
'Equiparc_'
'thinking._'
'UI_'
'IBX_'
'Provider._'
'Refractory_'
'AZS_'
'furnace_'
'alumina_'
'Sunrise_'
'Cabrillo_'
'grows_'
'Scotland's_'
'Purifier_'
'Needs._'
'doctors._'
'Blvd_'
'bc_'
'al_'
'Piemonte_'
'Fords_'
'Melrose_'
'Essentials_'
'NetUP_'
'IPTV/OTT_'
'Milanote_'
'images,_'
'sterling_'
'Filming,_'
'Webcasting_'
'Nest_'
'consecutive_'
'Onsite_'
'Closing_'
'removes_'
'tasks_'
'transaction_'
'AVENUE_'
'Mediation,_'
'Counselling_'
'Northeast_'
'heavy-duty_'
'liberty_'
'Formed_'
'Grouptrail_'
'seven_'
'laughter_'
'Steps_'
'like._'
'concerns_'
'Vanguardistas_'
'organizers,_'
'mellow_'
'Walk_'
'Blimling_'
'open-source_'
'B&C_'
'Behavioural_'
'FundingSecure_'
'peer_'
'Zenvoy_'
'workforces_'
'IMAGINE_'
'EVERYTHING_'
'POSSIBLE_'
'effects_'
'climbing_'
'trekking_'
'high-converting_'
'TopOption_'
'Etc_'
'O_'
'Fallon,_'
'incl._'
'Otago,_'
'lights,_'
'connectivity,_'
'Linux,_'
'vista_'
'LASIK_'
'Coronavirus_'
'73_'
'330_'
'Latitude_'
'Liberty_'
'893_'
'Bill_'
'Sims_'
'Incentives,_'
'Engagement,_'
'Accidents_'
'Mintec_'
'Hoist_'
'Overhead_'
'Cranes,_'
'Nonprofits_'
'Organizations_'
'D2F_'
'Schworer_'
'SE_'
'FNR_'
'Cogsdill_'
'Crest_'
'NJ's_'
'Stockholm,_'
'Oslo_'
'mail._'
'Lettershop_'
'Presort_'
'pulseData_'
'Disease._'
'Cumming_'
'Reputation_'
'promoter_'
'Underhill_'
'voted_'
'EPES_'
'Sectors._'
'Memory_'
'Indies_'
'Jordanian_'
'Exam_'
'Tessa_'
'EDM_'
'aerospace,_'
'landscape,_'
'population_'
'Bergen_'
'AnswerForce_'
'Dewar_'
'litigation._'
'telecommunication_'
'Telecommunications_'
'Brass_'
'Travelink_'
'Media._'
'Aggregage_'
'value-added_'
'time!_'
'Grass_'
'Perfected_'
'Greener_'
'Webworks_'
'villa_'
'Otero_'
'switching_'
'Locate_'
'AMERIGEL®_'
'outcome_'
'CAP_'
'Turkish_'
'Authority_'
'Wyatt_'
'internet,_'
'call._'
'preserving_'
'discrimination,_'
'disputes._'
'Nourmand_'
'landing_'
'Atomic_'
'Govt._'
'Stella's_'
'vulnerable_'
'Vulnerable_'
'Wills_'
'deploying_'
'Agres_'
'Sicilian_'
'Juices_'
'juice,_'
'Peer_'
'cognitive_'
'1967_'
'Solways_'
'Bulkhead,LED_'
'Bulkhead_'
'Light,Outdoor_'
'Retargeting_'
'Tool,_'
'offsite_'
'shenzhen_'
'replacements_'
'ICS_'
'Counter_'
'Cabinetry_'
'gogopdf_'
'Blog,_'
'NASTAR_'
'LongHash_'
'accelerating_'
'reseller_'
'turbochargers_'
'turbo_'
'Turbo_'
'log_'
'jaar_'
'medical._'
'Seald_'
'MY_'
'Roe_'
'lion_'
'LOS_'
'ANGELES,_'
'motivate_'
'classroom._'
'marking_'
'stampers,_'
'scheme_'
'Gauteng_'
'ELE_'
'Westland_'
'Tangible_'
'chefs_'
'Shvoong.com_'
'subjects._'
'out!_'
'Acme_'
'HVACR_'
'Mountaineer_'
'Beckley_'
'yearly_'
'workshops._'
'institutional,_'
'conduct_'
'DEVELOPMENT_'
'RGR_'
'Garages_'
'Abuse_'
'wheels_'
'Classic_'
'Stations_'
'Solution._'
'fueling_'
'chargers_'
'Brampton_'
'Ecount_'
'imagine_'
'month_'
'Vanguarde_'
'fitout_'
'Fitout_'
'RegularPay_'
'Scena_'
'goalie_'
'certifications_'
'colorado_'
'Wyoming_'
'Sanibel_'
'kids!_'
'Bailey-Matthews_'
'composition_'
'harpejji_'
'minimal_'
'Yarn_'
'Desh_'
'Networks:_'
'WhatsApp,_'
'yes_'
'www.redlinestudios.net_'
'Manhattan._'
'required_'
'FlexXray_'
'career._'
'RSA_'
'acs_'
'Reclamation_'
'Cardi/o®_'
'independence_'
'valued_'
'Elder_'
'Pickbox_'
'MJD_'
'Specialised_'
'Sukhothai_'
'Pedagogy_'
'Continuing_'
'faith,_'
'equine_'
'Wenita_'
'Earl_'
'Doncaster,_'
'Off_'
'reminder_'
'neighbors_'
'Luis_'
'Obispo_'
'VUE_'
'Poland_'
'Don’t_'
'Complexity_'
'Axsys_'
'practices,_'
'Bomberger's_'
'Ebco_'
'Concepts,_'
'1987_'
'Moorestown,_'
'hottest_'
'breakaway_'
'rational_'
'highway_'
'HDL_'
'screened_'
'girls,_'
'Site,_'
'Israel._'
'Ghana,_'
'Qld_'
'Marbesol_'
'Marbella_'
'Rock,_'
'Schurco_'
'rebellious_'
'Rebellious_'
'Undeniably_'
'Chicago._'
'Unflinchingly_'
'Feminist._'
'renaissance_'
'Renaissance_'
'iCube_'
'Petitbon_'
'Baltimore,_'
'ma_'
'Reconditioned_'
'bedding_'
'Turnkey_'
'ecommerce,_'
'signage._'
'Homeopathic_'
'mainstream_'
'Mainstream_'
'Ex_'
'adventurous_'
'In-Home_'
'Crowdmark_'
'Grading_'
'Instructors_'
'Ella_'
'Cheong_'
'(IP)_'
'chain._'
'buildings,_'
'Urethane_'
'Pangaea_'
'Furnished_'
'Month_'
'WATI_'
'Enablement,_'
'apply,_'
'PediPlace_'
'Terminal_'
'photographers,_'
'organized_'
'eatery_'
'Bracket_'
'CM_'
'Mose_'
'Cooling,_'
'demanding_'
'acumen_'
'steakhouse_'
'steak,_'
'JEC_'
'Berlitz_'
'VUCA_'
'experienced,_'
'Schuil_'
'strives_'
'informed,_'
'broker._'
'calculator_'
'minute._'
'Gavazzi_'
'Switch_'
'beehive_'
'Brandniti_'
'CATCH_'
'Humber_'
'Rancho_'
'Alberta,_'
'Defined_'
'Boddy-Ryerson_'
'e.Allen_'
'Murfreesboro_'
'contractor._'
'Tenisci_'
'Piva_'
'energies_'
'Dar_'
'Salam_'
'Islamic_'
'Hajj,_'
'Umrah,_'
'Packages_'
'Czarnowski_'
'Greatest_'
'Hits_'
'(Greater_'
'electronics._'
'Lyles_'
'Sutherland_'
'individually_'
'Suad_'
'Kafafi_'
'Computair_'
'aspire_'
'king_'
'Lode_'
'flatbeds,_'
'hopper_'
'italia_'
'Campanale_'
'eversign_'
'CPH_'
'Officers_'
'Policy_'
'cephalometric_'
'tracing_'
'CephX_'
'Flywire_'
'respond_'
'Resonance_'
'Bediz_'
'Group's_'
'Brady_'
'Arab_'
'Cavalier_'
'Flairs_'
'tomorrow’s_'
'johnston_'
'Johnston_'
'Worthington_'
'outdoors._'
'Sunnic_'
'AMPEL_'
'Eyecare_'
'Harrigan_'
'Preventative_'
'execution._'
'EcoAd_'
'usage_'
'Possible_'
'600_'
'multi-award_'
'McMurray_'
'Aerial_'
'Dreams_'
'survivors_'
'torture_'
'Bellevue_'
'Survivors_'
'Torture_'
'(PSOT)_'
'CISO_'
'CBS_'
'vastly_'
'Vastly_'
'fertilizer_'
'plants,_'
'Acids_'
'Ezra_'
'Architecture,_'
'Schlumpf_'
'unwind_'
'Legend._'
'story,_'
'Surry_'
'Sydney._'
'Strategy._'
'SOCAR_'
'naval_'
'vessels._'
'Entenmann's_'
'chip_'
'Domex_'
'Shine_'
'Online™_'
'email._'
'ACDelco_'
'non-GM_'
'Amlong_'
'employer_'
'accountable_'
'ABI_'
'NKLS_'
'streetwear_'
'Lancashire’s_'
'SAAG.COM_'
'feasibility_'
'Professional._'
'Sponzilli_'
'EPIX_'
'SeeMe_'
'artwork_'
'Creators_'
'Leehurst_'
'international,_'
'Metis_'
'honest_'
'what’s_'
'Wimbledon_'
'Mableton,_'
'Kelta_'
'Sector,_'
'ical_'
'sacred_'
'Entre_'
'DiManEx_'
'Aveda_'
'Medford,_'
'Visualized_'
'Curiosities_'
'nature._'
'parenting_'
'2-TIMES_'
'comprises_'
'installers_'
'Clayton,_'
'catalyst_'
'spectacular_'
'access,_'
'breathtaking_'
'Mediterranean_'
'lacrosse_'
'Casey_'
'SPEED_'
'DeepConnect_'
'Subscriber_'
'do-it-yourself_'
'elapseit_'
'granular_'
'JewelStreet_'
'Tara_'
'pharmacovigilance_'
'Pantana_'
'Acworth,_'
'Danish_'
'Towels,_'
'Sanitized_'
'Zealand,_'
'most._'
'amrita_'
'self-sufficient_'
'Harlem_'
'Vapour_'
'Ewell,_'
'Epsom_'
'BetSys_'
'betting,_'
'Netherlands._'
'Pointstreak_'
'kits,_'
'Faysal_'
'POS,_'
'Statesboro,_'
'Derwent_'
'Olivier_'
'Soaps_'
'Rush,_'
'Scheduled_'
'way2events_'
'Uw_'
'CBN_'
'MatthewsEstablished_'
'Bordon_'
'Filestage_'
'Diane_'
'Sauer_'
'LLBN_'
'Loma_'
'Linda_'
'Chinese,_'
'IGA_'
'Coca_'
'Cola_'
'Retailers_'
'SMC_'
'Centrally_'
'obstacles_'
'advancement_'
'sand_'
'brass,_'
'aluminum_'
'Castings_'
'version_'
'Judson_'
'Pasadena,_'
'Multnomah_'
'library._'
'supplemental_'
'vortex_'
'vision._'
'tomorrow_'
'Branch_'
'PK3-8th_'
'Hendrick_'
'ITIL_'
'Mentors_'
'Kickle_'
'videoconferencing_'
'Tempe_'
'slimming_'
'Lifescc_'
'3rd_'
'TAB_'
'Answer_'
'hôtel_'
'gastronomic_'
'hotel,_'
'rehabilitation,_'
'Axonic_'
'VLSI_'
'EDA_'
'android_'
'carefree_'
'glad_'
'SERVING_'
'Telleroo_'
'walls_'
'influencer_'
'Backup,_'
'on-site_'
'marketing:_'
'IdM_'
'hertz_'
'DevOps,_'
'SAN_'
'Elizabeth_'
'Cordie_'
'Forest._'
'Purchasing_'
'Studies,_'
'ILM_'
'Ambush_'
'Skateboarding_'
'Bagri_'
'Serviceteam_'
'Flywheel_'
'DealRoom_'
'Lifecycle_'
'Marlboro_'
'Vermont._'
'Concerts_'
'Bay,_'
'Controllers,_'
'modded_'
'Xbox_'
'Controller_'
'Beer,_'
'Rare_'
'ONLINE_'
'parts!_'
'Kim_'
'Mader-Bagley_'
'Pascoe_'
'leachate_'
'Deeplite_'
'AI-Driven_'
'Optimizer_'
'Bhoomki_'
'ServicedApartments.nl_'
'Happy_'
'DSA_'
'Cincera_'
'DocuWare_'
'DataSentics_'
'proxy_'
'Eluxe_'
'ISWARABENA_'
'SDN_'
'BHD_'
'Wellforce_'
'Different_'
'LBL_'
'Sdn_'
'Bhd_'
'1980._'
'maintained_'
'Middleton's_'
'Aagneya_'
'communication,_'
'ATL,_'
'E-commerce,_'
'FRP_'
'Kuwait_'
'Dinners_'
'Dinner_'
'Cataract_'
'Ozcode_'
'Taplow_'
'Aspire_'
'Retire_'
'Show_'
'gun_'
'day-to-day_'
'Kubernetes,_'
'OpenStack_'
'mechanics_'
'counselling_'
'seminars_'
'Animals_'
'Ambassador_'
'manor_'
'outpatient_'
'Geneva_'
'MasterCare_'
'bank,_'
'rate._'
'Youâre_'
'itâs_'
'drawn_'
'ICM_'
'Montchevre®_'
'Handcrafted,_'
'EPC_'
'2004_'
'Beautiful.ai_'
'Minutes_'
'Pets_'
'refueling_'
'vital_'
'up-to-date_'
'libraries_'
'Vigilant_'
'Limitless_'
'Zluck_'
'steel._'
'Booths_'
'Communion._'
'Holy_'
'Lanark,_'
'Thimba_'
'Adwords_'
'helpline_'
'escape_'
'120_'
'Superyacht_'
'Hammocks_'
'Person_'
'Hammock_'
'Rates._'
'Lot-Art_'
'galleries_'
'Archae-aus_'
'S2C2_'
'Characterization_'
'Membrane_'
'Philip_'
'Carter_'
'Vineyards,_'
'Vineyards_'
'Streaming,_'
'Hobart_'
'Gfycat_'
'GIFs_'
'Music,_'
'guitars,_'
'loos_'
'Loo_'
'showers._'
'CareOne_'
'Novi_'
'évolis®_'
'hair,_'
'Mayan,_'
'Luxxe,_'
'Bliss_'
'Palace_'
'approved._'
'Regenis_'
'CertifiKID_'
'Moments_'
'overall_'
'enjoying_'
'Hop-On,_'
'Hop-Off_'
'Vancouver,_'
'Mountain._'
'Hidabroot_'
'Bluegg_'
'CleverMaps_'
'mentoring,_'
'practitioner_'
'Expresiv_'
'Experience,_'
'his_'
'corporations,_'
'Polarkonsult_'
'1974_'
'Artinis_'
'NIRS_'
'fNIRS_'
'Quasset_'
'Raise_'
'Cohen-Cohen_'
'Hindi_'
'DAKSHIN_'
'BHARAT_'
'replace_'
'empower®_'
'Robert_'
'Radiofrequency_'
'FAST_'
'lawyers,_'
'fall_'
'Aspekt_'
'Construct_'
'Meritus_'
'Pharmaffiliates_'
'compounds,_'
'Fred’s_'
'Tents_'
'Westgate_'
'LGMS_'
'Transam_'
'Carriers_'
'exact_'
'C-level_'
'Snoozer®_'
'spring_'
'hoteliers_'
'Oldest_'
'cycling_'
'InfoCrank_'
'NexKemia_'
'expandable_'
'Percipient_'
'compliance._'
'Castillo_'
'Juan,_'
'Puerto_'
'Corporations_'
'ePayments_'
'Corewood_'
'Bethesda-Chevy_'
'Chase_'
'lucky_'
'Daycare_'
'Manrochem_'
'We’ll_'
'pianos,_'
'Basil_'
'Fry_'
'Hyecorp_'
'Peach_'
'Divas_'
'domestically_'
'Dogtainers_'
'Teltek_'
'Fergus_'
'SkyVantage_'
'Wellbots_'
'row_'
'gloves,_'
'XenomatiX_'
'Ambuja_'
'Cement_'
'responsibility_'
'tropical_'
'Phuket,_'
'problems,_'
'Blackhill_'
'someone_'
'DateTix_'
'Hine_'
'Sorbothane_'
'Ambition_'
'trials_'
'cure_'
'Transfers,_'
'introducing_'
'descriptions,_'
'Wildlife_'
'Navigation_'
'CarPlay_'
'hijabs_'
'plain_'
'Omera_'
'Chilly_'
'Powder_'
'self-catering_'
'DIGITAL_'
'PROCESSES_'
'ADDED_'
'VALUE_'
'ACOPA_'
'lineage_'
'and..._'
'nestled_'
'Sayulita_'
'Playa_'
'approvals_'
'Braavo_'
'Lazzara_'
'spars_'
'sailors_'
'Bridging_'
'migration,_'
'Andy_'
'Bracken_'
'Markquart_'
'Lake._'
'Logentries_'
'Karon_'
'PRI_'
'marin_'
'Jaguar,_'
'Marin_'
'Pathlight_'
'STIR_'
'PARTNER_'
'PI.EXCHANGE_'
'Durango_'
'Stone._'
'DOT_'
'Regulations_'
'KELMAR_'
'Cuba._'
'Becker_'
'Recruiters_'
'Leads,_'
'Engaged_'
'myOnsiteHealthCare_'
'Draw_'
'DelMoSports_'
'lol.travel_'
'Alperin_'
'VentureNet_'
'☑_'
'Gerab_'
'Sys_'
'Orbits_'
'Wolverhampton._'
'Aviation._'
'Mole_'
'Archive_'
'wafer_'
'Wafer_'
'reclaim_'
'SilverScript_'
'Sponsor_'
'Bangladesh_'
'Humanity_'
'SpotDraft_'
'Zenith_'
'PreHab_'
'ReHab_'
'culture._'
'HJT_'
'dentist,_'
'tko_'
'wiser_'
'volumes_'
'Estrategia_'
'Digital,_'
'Cobus_'
'I.G._'
'IRS_'
'Bates_'
'interiors,_'
'renovation_'
'MD._'
'Yake_'
'Efficient_'
'storm_'
'ethnography,_'
'journaling,_'
'Tasleeh_'
'airsoft_'
'Abu_'
'dhabi_'
'Moby,_'
'SmartShape_'
'gastric_'
'laboratory._'
'TRIBVN_'
'Cheesmans_'
'Full-Range_'
'immigrant_'
'Florence_'
'front,_'
'LoveBook®_'
'Why_'
'SunEarth_'
'components,_'
'System._'
'Resistant_'
'Rideau_'
'Carleton_'
'JLWorldwide_'
'B.PAC_'
'gathering_'
'stressful_'
'Man_'
'Marijuana_'
'&#9989;_'
'tents,_'
'Summerfield_'
'Waldorf_'
'Rosa,_'
'Sonoma_'
'Pollution_'
'LEDcorp_'
'Goldpro_'
'Estates_'
'4-6_'
'rooflights_'
'standard._'
'Goalsetter's_'
'Cashola_'
'week._'
'Arabia_'
'excels_'
'LePoidevin_'
'Musculoskeletal_'
'MSK_'
'215-732-7321_'
'CNS_'
'emerald_'
'anal,_'
'Picture_'
'Emeraldchristianacademy.org_'
'pornstar_'
'Indusflow_'
'Solving_'
'loose_'
'Ingredients_'
'PayTunes_'
'Dermatologist_'
'Bonaveri_'
'mile_'
'tablets,_'
'Qlayers_'
'Ticketing_'
'PFS_'
'Themes_'
'desk_'
'FotoWare_'
'Healthcare,_'
'Emerald_'
'Salads_'
'Madison,_'
'CSTOWN_'
'in-app_'
'Melbourne-based_'
'ISSi_'
'Representation_'
'SAU/CAL_'
'AskBio_'
'AAV_'
'Zumaya_'
'Irresponsible_'
'Reading!_'
'hunger_'
'HydraTech_'
'Knocki_'
'imports_'
'Intel_'
'lubricant_'
'Bedtime_'
'adventures._'
'Posabilities_'
'crowd_'
'Reps_'
'Candor_'
'pupil_'
'Monsey_'
'low-cost_'
'Wooptix_'
'activewear_'
'Brothers_'
'Onyx_'
'BBB_'
'calls,_'
'insurers_'
'(AML/KYC/PEP)_'
'Out._'
'Known._'
'Clients._'
'TVG_'
'STEM_'
'ideaGeek_'
'obstacle_'
'Challenge_'
'malpractice_'
'Aeon_'
'NAV/BC_'
'smart._'
'africaJUICE_'
'Sustainably_'
'bead_'
'1993_'
'Bead_'
'veteran_'
'C²_'
'editing_'
'papers_'
'Scientific_'
'disaster_'
'entity_'
'approach,_'
'Junair_'
'Spraybooths_'
'Candle_'
'Paraffin_'
'Wax_'
'Importer_'
'Excel_'
'Difference._'
'Azbar_'
'prototypes_'
'1983._'
'additive_'
'incubator_'
'Stonewall_'
'reduction_'
'cost._'
'Kilmarnock_'
'disini_'
'Disini_'
'janitorial,_'
'RingCentral_'
'Messaging_'
'Orion_'
'thanks_'
'ReSec_'
'doesn't_'
'Blox_'
'ecological_'
'Askel_'
'regenerate_'
'adapt_'
'Odor_'
'TeamHaven_'
'round!_'
'prairie_'
'Keller_'
'NWA_'
'conflict-affected_'
'Buying_'
'Rush_'
'Convenience_'
'Stairlifts_'
'Ramps_'
'Imfuna_'
'Montgomery,_'
'excellence._'
'Resolute_'
'painful_'
'Terrorism_'
'One,_'
'Whiskers_'
'Wags,_'
'AFG_'
'Fisherprint_'
'TLC_'
'⋆_'
'Kool_'
'Admeup_'
'marketers_'
'Jagran_'
'gardens_'
'water._'
'Gardens_'
'bags,_'
'PLUS_'
'PMI_'
'Ambler_'
'Simplified._'
'Refurbishment_'
'Chirpify_'
'Bionic_'
'Hughes_'
'termite_'
'Termite_'
'Poquet_'
'Nirmal_'
'applies_'
'algorithmic_'
'unbiased_'
'vision,_'
'Bea_'
'IFLR1000_'
'firm-by-firm_'
'editorial,_'
'Asheville_'
'bibs,_'
'Toppik_'
'Tampa,_'
'Dataroots_'
'BCK_'
'Columbus._'
'Mike_'
'Carpino_'
'Decoral_'
'Michelle's_'
'Temecula_'
'Genesa_'
'UAS_'
'scene._'
'ordering_'
'Restaurants_'
'railway_'
'CityTech_'
'sourcing,_'
'Yarns_'
'swanson_'
'program,_'
'partner,_'
'Leasewell_'
'hassle,_'
'Q-haus_'
'Prefabricated_'
'according_'
'XUNZEL_'
'ODM_'
'MacDonald_'
'Start-up_'
'Merger_'
'Prevance_'
'short-term_'
'Naveco_'
'economy_'
'PixelSpoke_'
'unions,_'
'Unions_'
'Conferencing_'
'BSP_'
'SouthPool_'
'Khaki_'
'applying_'
'assistance._'
'skating_'
'(ISI)_'
'long._'
'thing_'
'CANEAR_'
'multi-family_'
'Sparkwork_'
'remarkable_'
'speech_'
'Aids_'
'Impart_'
'ways_'
'packed_'
'Office,_'
'Pharma,_'
'Virus_'
'Nispera_'
'mctheater.nl_'
'skirting_'
'Morph.ai_'
'Chatbots_'
'McCartney_'
'Cetas_'
'MECO_'
'ASAP-translation.com_'
'intermediary_'
'Scotland._'
'iDreamBiz_'
'Chatsworth_'
'Riptide_'
'GCB_'
'Maxremind_'
'DigiVac_'
'Essayon_'
'contractors,_'
'Vollo_'
'baits_'
'Dynamite_'
'Baits_'
'carp_'
'Creatrust_'
'Luxembourg_'
'biological_'
'QM_'
'2006_'
'homeowners,_'
'Manatee,_'
'you've_'
'Layton_'
'Feller_'
'Wendt,_'
'compensation._'
'Couplers_'
'Issues_'
'Vertical_'
'LTL_'
'ShipOCI_'
'Acoustics_'
'Dunn_'
'scout_'
'options,_'
'paul_'
'ECJC_'
'space,_'
'Vital_'
'Photography,_'
'Inwedo_'
'Grinds_'
'Ashfield_'
'Monmouth_'
'Quarry_'
'FitBark_'
'location,_'
'Benchmark_'
'go-to_'
'Snaappy_'
'honey_'
'bees_'
'heritage,_'
'finest,_'
'Batchelor_'
'objective_'
'Giftz_'
'compressors_'
'coring_'
'Butler_'
'AIP_'
'Beverage_'
'Calago_'
'Nomi_'
'Garff_'
'[24]7.ai_'
'act_'
'Foreclosure_'
'shredding_'
'Flavor_'
'juices_'
'intended._'
'Eventim.RO_'
'mai_'
'culturale,_'
'sportive_'
'pentru_'
'posibilitatea_'
'plus,_'
'possibility_'
'addition_'
'ThriveTracker_'
'WillSecure_'
'Drama_'
'Horse_'
'Bridgeport,_'
'2to3days_'
'working._'
'basis._'
'Nation's_'
'Industries._'
'dealsnapt™_'
'onboard_'
'categories_'
'Pharma_'
'Telpo_'
'staging_'
'seattle_'
'Lindquist_'
'Mortuaries_'
'Cemeteries_'
'UT_'
'Kent,_'
'further._'
'Centerville_'
'securing_'
'corporations_'
'Television_'
'BooginHead_'
'stuffed_'
'broker,_'
'RockWare_'
'grupo_'
'Panama._'
'Service:_'
'38_'
'caterers_'
'בני_'
'עקיבא_'
'העולמית_'
'Bnei_'
'Akiva_'
'54,_'
'Kiosks_'
'Scanning_'
'Lorenzo_'
'Benefits,_'
'Calvert_'
'rhinoplasty,_'
'A/C_'
'THERE_'
'videographers,_'
'Valencia,_'
'Valencia_'
'J-line_'
'Jolipa_'
'Spunk_'
'Halbe_'
'Rand_'
'Template_'
'OpenLIVE_'
'Coverall_'
'uniform_'
'HOWL_'
'Digital's_'
'Breed_'
'Bottled_'
'tower_'
'Allstar_'
'Wetherby_'
'Raz_'
'Steelman_'
'Northlake_'
'investment,_'
'transactions._'
'Gatehouse_'
'Godmanchester_'
'EC_'
'Internal_'
'Tenlegs_'
'Linde_'
'Venter_'
'Sinube_'
'Harper_'
'Nguyen_'
'Nguyen,_'
'Melanoma_'
'melanoma._'
'Beaver_'
'clinic._'
'BroadStar_'
'Questions,_'
'Anker_'
'McGee_'
'Thielen_'
'Utilimarc_'
'Consigning_'
'Consignment_'
'Boardsport_'
'SOURCE_'
'Stargazer_'
'Nicolson_'
'Decorators_'
'LodeStar_'
'Waterside_'
'Candera_'
'Embedded_'
'Consultants._'
'Kopper's_'
'1937_'
'Rexel_'
'particle_'
'Threeland_'
'Laos,_'
'tampons,_'
'pads_'
'5App_'
'Stick_'
'IV_'
'arterial_'
'catheters_'
'Nano_'
'Niesh_'
'Ward_'
'Flex_'
'Riverbend_'
'OfficeSpace.com_'
'unlocked_'
'MT4/MT5_'
'ABM_'
'Kialo_'
'Popular_'
'Janus_'
'SpeechEasy_'
'Serrula_'
'NDL_'
'transformer_'
'testing._'
'NABL_'
'Decibullz_'
'Newhamburg_'
'Mallett_'
'Ansys_'
'Q_'
'math_'
'Bartolomeo_'
'DealerTeam_'
'MCM_'
'comms_'
'Rank_'
'iNet_'
'Combined_'
'rowing_'
'Rowing_'
'Dock_'
'Elasticsearch_'
'DSS_'
'VMT_'
'Ecopack_'
'Bestform_'
'code,_'
'Stork_'
'Penn_'
'Yan_'
'Hammondsport,_'
'HOLOFIT_'
'Microanalysis_'
'moderators_'
'organizers_'
'threshold_'
'Threshold_'
'Labor_'
'Swansea_'
'Beck_'
'Globex_'
'Creowave_'
'Frequency_'
'Philos_'
'implementations_'
'XCES_'
'Wolverhampton_'
'Whoop_'
'MrSteam_'
'Flint_'
'Auto,_'
'dodge,_'
'Upperdog_'
'FormSprint_'
'MyPorter_'
'Starkey_'
'Office._'
'FoodLegal_'
'ZillionDesigns_'
'toronto_'
'Robbins_'
'BG_'
'Gordon_'
'Waproo_'
'Metalcraft_'
'metals_'
'CaRPM_'
'Florida's_'
'CasePro_'
'pa_'
'configurations._'
'Steals_'
'Clifton_'
'Aarcher_'
'Broker._'
'Fee-only,_'
'Commission-free_'
'Ubiik_'
'Weightless_'
'LPWAN_'
'Armenia_'
'exclusive,_'
'Armenia._'
'Arara_'
'C-Capture_'
'dioxide_'
'RelPro_'
'Tillo_'
'Marine,_'
'Motilal_'
'Oswal_'
'Virginia-based_'
'Ogden,_'
'TruckMax_'
'implantable_'
'Abbey_'
'Busselton_'
'1973,_'
'Spangles_'
'coworking_'
'OPTYVA_'
'liability_'
'FPR_'
'M&M_'
'Solly_'
'Assa_'
'Cassa_'
'privileged_'
'Residents_'
'HOP_'
'Ubiquitous_'
'Apptree_'
'IIDE_'
'Ranked_'
'Cayuga_'
'Ambooriny_'
'Burru_'
'TCL_'
'commission._'
'1825_'
'Willis_'
'W.E._'
'Vittitow_'
'buffing_'
'Nextome_'
'Springdale,_'
'Sharonville_'
'mysterious_'
'Kyrgyz_'
'nomads._'
'CDA_'
'semi-automatic_'
'filling_'
'Wendell_'
'Kitchener,_'
'ON,_'
'clift_'
'Panhandle_'
'Kaged_'
'skydiving_'
'Jumptown_'
'Skydiving_'
'Homogenizers_'
'BEE_'
'LP3_'
'KoverRoos®_'
'Kenco_'
'Lavoro_'
'Ashton_'
'Norwalk,_'
'McKenna_'
'gaps_'
'Hunger_'
'Symbicore_'
'sold_'
'infratech_'
'BISIL_'
'LegalJini_'
'EIZO_'
'Squared_'
'Roanoke_'
'hate_'
'bullying_'
'ALX_'
'marinas_'
'YWAM_'
'Heidebeek_'
'springboard_'
'further.faster_'
'SANEDI_'
'Albion_'
'helphouse.io_'
'Zendesk_'
'Bourne_'
'late_'
'Presbyterian_'
'Gwinnett_'
'LoRaWANÂ®_'
'Enterprise-grade_'
'myHealthSpecialist_'
'Penfida_'
'BlueRock_'
'Behind_'
'Bottles_'
'osteocom_'
'chronic_'
'CompCiti_'
'Map_'
'Postcode_'
'Phelan_'
'RBar_'
'CARE_'
'details,_'
'Hurst_'
'Specialise_'
'MEDIA_'
'Kempton_'
'rideshare_'
'MentorSelector_'
'mentees._'
'Placements_'
'Adler_'
'Antlers_'
'Condominiums_'
'Freigeist_'
'Omnify_'
'MAC_'
'Seaside_'
'Galveston_'
'Prosis_'
'Dymedix_'
'Diagnostics_'
'Vogl_'
'Meredith_'
'Romano_'
'teamwork_'
'ARCH_'
'Headhunters_'
'Dunhams_'
'Speaker_'
'Womack_'
'Watford_'
'THG_'
'BGM_'
'Minneapolis-St._'
'SpringAhead_'
'makers._'
'Raa_'
'Milwaukee_'
'Sofia_'
'(ATPL)_'
'Comment_'
'profanity_'
'Acclaim_'
'newest_'
'Nikrad_'
'Widex_'
'test._'
'Highwire_'
'disciplined,_'
'Waterfield_'
'Ganetec.com_'
'Capitect_'
'billing,_'
'Colto_'
'Allure_'
'Stuarts_'
'Biennale_'
'Interieur_'
'Belgium's_'
'Abbotts_'
'SIMFLO_'
'OneStream_'
'Caps,_'
'Tonneau_'
'Bitwala_'
'CMG_'
'Rigid_'
'TransUnion_'
'LightLab_'
'Sonnenfeld_'
'Trocchia_'
'mould,_'
'FreshChoice_'
'ETC_'
'Revit_'
'Max_'
'Vray_'
'AutoCAD_'
'diesel_'
'Spec_'
'chew_'
'Dogsee_'
'Ringgold_'
'Calling_'
'PPI_'
'deadline_'
'Msinsi_'
'Orbital_'
'SRB_'
'brokers._'
'TCS_'
'GT_'
'manufacturer’s_'
'Safer!_'
'Simpson_'
'(RPA)_'
'next-gen_'
'Covert_'
'wetlands_'
'Winton_'
'Wetlands_'
'scientific,_'
'significance_'
'Panoramic_'
'Boone_'
'Drugs_'
'Imperia_'
'Banquet_'
'Palermo,_'
'Lebanese_'
'Jungle_'
'Camino_'
'seasonal_'
'Alanbrookes_'
'Manawa_'
'Mileage_'
'BACtrack_'
'turbine_'
'ATL_'
'talent._'
'Viamed_'
'ProFromGo_'
'Sector-19,_'
'Lingerie_'
'shameless_'
'anytime,_'
'educating,_'
'Tbilisi,_'
'HubSpot_'
'Alley_'
'Hampshire's_'
'Jan_'
'Zephyr_'
'Tours._'
'B&B_'
'admin_'
'Hairline_'
'Non-Surgical_'
'farms._'
'PIVX_'
'Sapling_'
'Starr_'
'Frost_'
'code-free_'
'Newired_'
'TrackTown_'
'Grammar_'
'Chic,_'
'STREAM_'
'IYKONS_'
'Thesis_'
'Essay_'
'covid_'
'NPR_'
'WRVO_'
'keto_'
'low-carb_'
'Diet_'
'Lakedale_'
'Envoc_'
'expert,_'
'Sightsavers_'
'stag_'
'Stag_'
'Resolve_'
'memories_'
'Prom_'
'Pageant_'
'dmc_'
'Hadler_'
'Artemis_'
'Weld_'
'Hatfield_'
'Ultiplay_'
'j._'
'C.D.Peacock_'
'Heater_'
'Wimpole_'
'W1_'
'Palo_'
'Alto_'
'Flippable_'
'flip_'
'AuthenticID_'
'verification_'
'Galaxy_'
'LG_'
'Capron_'
'Avgerinos_'
'Leverage_'
'Basatin_'
'Link3D_'
'Begins_'
'ValuTrack_'
'coordinator_'
'candies_'
'RetinaLyze_'
'Axcelora_'
'flashlights_'
'Montalcino_'
'Howzat_'
'Cricket_'
'Allan_'
'McDougall_'
'Drag_'
'Aldgate_'
'CAEN_'
'Identification_'
'Cordyne,_'
'Fleek_'
'Shrimp_'
'Walsall_'
'AutoONE_'
'lasers_'
'soft-tissue_'
'LightScalpel_'
'learn._'
'Chosen_'
'Enhar_'
'Infratech_'
'1974,_'
'FGX_'
'Cal-Sierra_'
'1000_'
'eLink_'
'BurnAlong_'
'PROMiXX_'
'Vodafone_'
'Lodging_'
'watson_'
'Writer_'
'M.H._'
'Scholarship_'
'Concesionar_'
'reparator_'
'agreat_'
'Citroen_'
'Sopachem_'
'FORTË_'
'Vitrocsa_'
'minimalist_'
'a-tune_'
'Quadrise_'
'Fuels_'
'Argentinian_'
'JobnetAfrica_'
'Cuckoo_'
'Leeway_'
'Beingessner_'
'Exteriors_'
'Siding_'
'WorkHere_'
'Goettling_'
'Acoustics,_'
'Moxie_'
'Melbourne’s_'
'Lola_'
'FUGOO_'
'waterproof_'
'AAB_'
'Tablets,_'
'Kapitex_'
'360Â°_'
'Beltsville,_'
'Huntsville,_'
'Huntsville_'
'Hancock_'
'info,_'
'Wright_'
'iCap_'
'Detroit._'
'Beard_'
'Dickson_'
'Halon_'
'MTA_'
'Drupe_'
'KeepItSafe_'
'Lawhill_'
'Wailea_'
'MLA_'
'Labour_'
'95_'
'Nonviolence_'
'part-time_'
'NAGA_'
'Saathi_'
'napkins_'
'Lateral_'
'Lloyds_'
'TESSIS_'
'Dysart_'
'250_'
'EPTANOVA_'
'Campbell_'
'FMCG_'
'Ocado,_'
'Walmart_'
'Rizen_'
'eResource_'
'Scheduler_'
'institutions,_'
'serialization_'
'NOVO_'
'Hemworld_'
'Ardleigh_'
'Spark_'
'Varghese_'
'defend_'
'Then_'
'Bransgroves_'
'Labeling_'
'Circular_'
'connectors_'
'Producto_'
'Inroads_'
'Frederick,_'
'NASM_'
'Jaipur_'
'Ahmedabad_'
'Jodhpur_'
'Inductive_'
'Larchwood_'
'Harkness_'
'MEC_'
'Environmentally_'
'Putnam,_'
'Kanawha_'
'Cabell_'
'speaks_'
'SONGWON_'
'Logicsofts_'
'Leighton_'
'Bluee_'
'Alrad_'
'Modulus_'
'Trigger_'
'PWCs_'
'snowmobiles_'
'ItsMyCargo_'
'eStream_'
'Mason_'
'Owen_'
'Lyons_'
'(MEC)_'
'Rex_'
'Hopen_'
'PlayVS_'
'Ranger_'
'Demio_'
'DIGS_'
'Cake_'
'In-store_'
'Automec_'
'Backgauge_'
'Retrofitting_'
'Pressbrakes_'
'Shears_'
'Becker's_'
'SEQEL_'
'Path_'
'quantitative_'
'TyrrellTech_'
'DINNGO_'
'PIAP_'
'sustainable,_'
'Kinpo_'
'Chartwell_'
'Seety_'
'Seals_'
'Saral_'
'NeuroInitiative:_'
'Cure_'
'Ortho_'
'electro-mechanical_'
'SHIN_'
'Down_'
'Under_'
'(DUB)_'
'Pies_'
'savory_'
'Public.com_'
'Banbury,_'
'Brailes_'
'Pawleys_'
'Missoula-Based_'
'Water/Wastewater_'
'Cristal_'
'Airbnb_'
'Neighbour_'
'Note_'
'Hawaiian_'
'Thermoscreens_'
'Lawyaw_'
'shark_'
'Shield_'
'Superstore_'
'Sault_'
'Ste._'
'Marie_'
'Colt_'
'UWM_'
'Encoded_'
'Warden_'
'Kappes_'
'Unlocking_'
'cometocapetown.com_'
'Skillbond_'
'➤_'
'Meeting,_'
'Stamford,_'
'SkyCiv_'
'Mosaic_'
'Thickness_'
'ProHealth_'
'Carneros_'
'Region_'
'Residency_'
'Kindalin_'
'Suffolk's_'
'Sudaksha_'
'Smile_'
'Flanders,_'
'Elsberg,_'
'Herber_'
'Acquisitions,_'
'Countertops_'
'Kura_'
'LogRocket_'
'traceability_'
'Confidential_'
'avid_'
'Hanover_'
'Chophouse_'
'meals._'
'Friend's_'
'Vijay_'
'Tamis_'
'FSBOHOMES_'
'sous_'
'vide_'
'Wynyard_'
'Thuynsma_'
'Gay_'
'Lesbian_'
'Spencer_'
'Groasis_'
'desertification_'
'areas!_'
'ladders_'
'Trisilco_'
'Radiance_'
'Foodify_'
'Augmania_'
'(AR)_'
'Precise_'
'Coulter_'
'Autonebula_'
'Scooters_'
'Balance_'
'BioPak_'
'Babcock_'
'MSS_'
'Fiat_'
'Emailtopia_'
'Regulator_'
'eftpos_'
'EFTPOS_'
'on-call_'
'Eftpos_'
'helpr_'
'agovo_'
'workforce._'
'Agovo_'
'optinmonster_'
'subscribers_'
'Intent®_'
'OptinMonster_'
'twine.fm_'
'Twine_'
'matches_'
'260,000._'
'hire._'
'Twine:_'
'additium_'
'Test,_'
'Pedestrian_'
'SBA,_'
'Seat_'
'Anchorage,_'
'Sled,_'
'EuroNCAP,_'
'R94,_'
'R14,_'
'R17,_'
'R25,_'
'Impact,_'
'Crash,_'
'Scale,_'
'crash,_'
'greenlight_'
'Evaluate_'
'Talks_'
'fraser-woods_'
'coeducational_'
'grade._'
'FWM_'
'06470._'
'akkomplish_'
'NAV._'
'MSD365_'
'img_play_'
'Youtube_'
'IMG_Play_'
'timehero_'
'TimeHero's_'
'Task_'
'timehero.com_'
'offloading_'
'fluids._'
'carrier_'
'ports._'
'goram_'
'enhancement_'
'ecommerce;_'
'agility._'
'Goram_'
'folio_'
'animators._'
'Folio_'
'Illustrators_'
'Artists_'
'cognition_'
'pr-interiors_'
'Belgium_'
'continents_'
'Belgian-inspired_'
'Belgian_'
'gregory_'
'conveyancing_'
'Gloucestershire_'
'ljmb_'
'octopeek_'
'high-level_'
'crevin_'
'commit_'
'upholstered_'
'function,_'
'Crevin_'
'1976_'
'ramp_'
'lockstep_'
'diagnose,_'
'Spinal_'
'Decompression_'
'Chandler,_'
'Ahwatukee,_'
'Queen_'
'Tempe,_'
'Tan_'
'Higley,_'
'Apache_'
'Junction_'
'Maricopa_'
'Chandler_'
'onedesk_'
'helpdesk_'
'g/fore_'
'Gloves._'
'Colours_'
'Options,_'
'AA_'
'Leather._'
'GFORE_'
'Colored,_'
'G/Fore_'
's.j._'
'titan_'
'Monetization_'
'globalux_'
'Lighting-_'
'rht_'
'RHT_'
'listed_'
'NGOs,_'
'(LLPs)._'
'netscientific_'
'identifies,_'
'commercialises,_'
'Biomedical,_'
'continum_'
'polargy_'
'retrofit_'
'Containment_'
'pirate_'
'preservatives,_'
'formats:_'
'Aged_'
'crunchy_'
'Booty_'
'Sticks_'
'Veggie_'
'Sticks._'
'Snacks_'
'amcast_'
'AMCAST_'
'industry-defining_'
'crusher_'
'jaw_'
'cone_'
'crushers_'
'Amcast_'
'Crusher_'
'punchout2go_'
'Punchout_'
'Ariba,_'
'Coupa,_'
'Jaggaer,_'
'SAP,_'
'cXML_'
'eCommerce._'
'CXML,_'
'EDI_'
'compliant._'
'Counselors_'
'bayshore_'
'dura_'
'enteral_'
'Bayshore_'
'manubhai_'
'gems_'
'Manubhai_'
'Borivali_'
'Necklace_'
'Set._'
'âReady_'
'Designs._'
'âMost_'
'Jeweller._'
'âGuaranteed_'
'ob/gyn_'
'reachlaw_'
'elève_'
'istp_'
'start,_'
'EPIC_'
'kiddykare_'
'nurseries,_'
'crèches_'
'pre-schools._'
'KiddyKare_'
'verifyter_'
'Debug_'
'speechworks/asher_'
'presenters._'
'Skills,_'
'Speaking_'
'businessden_'
'BusinessDen_'
'knot_'
'Maak_'
'Lab,_'
'48_'
'smells_'
'swag._'
'armarii_'
'fitted_'
'bedrooms_'
'nursing._'
'Pinellas_'
'dot.vu_'
'multiply_'
'ImmunoAssay_'
'high-profitable_'
'reagents_'
'mpe_'
'MPE_'
'skyparksecure_'
'28_'
'Heathrow,_'
'Gatwick,_'
'Prolotherapy_'
'YOU!_'
'Hauser_'
'Neck_'
'elfs_'
'ELFS_'
'+91-265-2988888_'
'hen/stag_'
'football,_'
'dodgeball_'
'Xtreme_'
'Stag,_'
'Hen_'
'tradecloud_'
'samujana_'
'While_'
'perfect..._'
'Rental,_'
'Koh_'
'Samui,_'
'storm12_'
'20yrs_'
'Storm12_'
'harm._'
'Harm_'
'managers,_'
'pros,_'
'Reach:_'
'xtribe_'
'Xtribe_'
'barter_'
'privates,_'
'Xtribe:_'
'Closer_'
'Deal!_'
'simpletherapy_'
'video-based,_'
'head-to-toe_'
'joint,_'
'muscle,_'
'tendon,_'
'ligament_'
'distress._'
'rollouts,_'
'oyster_'
'ims*_'
'organise,_'
'Oyster_'
'IMS_'
'haiti_'
'lifesaving_'
'sickest_'
'impoverished_'
'Haiti._'
'yva_'
'contractual_'
'LAAG,_'
'501c3_'
'sexual,_'
'verbal,_'
'identifying,_'
'admitting,_'
'preisz_'
'vettd_'
'identifies_'
'eazy_'
'Customers._'
'face,_'
'01242_'
'650052_'
'cascade_'
'engraving_'
'Awards_'
'lennd_'
'Virtual,_'
'legal.io_'
'reimagined._'
'efficiently,_'
'compromising_'
'Legal.io_'
'implant_'
'implants_'
'X-ray,_'
'Scan_'
'Plan!_'
'£1,045_'
'sublimated_'
'finishes_'
'splashbacks_'
'signage,_'
'pre-treatments_'
'kare_'
'Medical-Manufacturer_'
'CPAP,_'
'AutoCPAP,_'
'BPAP,_'
'Ventilators,Oxygen_'
'Concentrators,_'
'Nebulizers,_'
'Suction_'
'Apnea_'
'Ventilation&_'
'bytekat_'
'Bytekat,_'
'Bytekat_'
'route_'
'clients!_'
'natives._'
'easydo_'
'fillable_'
'refillable_'
'pots_'
'pans!_'
'lovable_'
'dish_'
'Greetings_'
'lovers._'
'happens_'
'candlelit_'
'dinner?_'
'happens._'
'Stagg_'
'EKG_'
'Pour-Over_'
'Kettle._'
'Brew_'
'Ridiculously_'
'judaea,_'
'teens,_'
'Judaea_'
'fontoxml_'
'webbased_'
'xml_'
'Fonto:_'
'editor,_'
'authoring._'
'authoring_'
'Fonto_'
'Hydraulics_'
'Parker®_'
'pneumatics_'
'military,_'
'Hydraulics:_'
'Hydraulics,_'
'Pneumatics_'
'switcher.ie_'
'€475_'
'Switcher.ie._'
'Swiss-_'
'Citroen._'
'haven_'
'Haven_'
'homeless_'
'technicians._'
'associate_'
'months._'
'Technician_'
'Associate_'
'Degrees_'
'giggs_'
'Eynesbury._'
'landlord?_'
'can..._'
'Eynesbury_'
'ans_'
'full-stack_'
'enabler._'
'brandstore_'
'warehousing._'
'westcott_'
'drive!_'
'(619)_'
'474-1591_'
'yogi_'
'Yogi_'
'Beans'_'
'instructors_'
'teen,_'
'Livestream_'
'Instructor_'
'Metrics_'
'Smaply_'
'ExperienceFellow._'
'Thinkr_'
'accompanies_'
'designer._'
'co-founded_'
'Thinking,_'
'Stickdorn_'
'Jakob_'
'Schneider._'
'carl_'
'gm_'
'concetto_'
'developer._'
'Studies._'
'dryers_'
'Dehydrating_'
'rotary_'
'ethanol_'
'(ddgs),_'
'biomass,_'
'torrefaction_'
'biochar_'
'Dryers_'
'Rotary_'
'Dryer_'
'awaken180_'
'long-lasting_'
'Awaken180°_'
'Weightloss_'
'Massachusetts'_'
'formulated_'
'polymers_'
'reach.Top-class_'
'FPL_'
'Come,_'
'formulate_'
'Formulated_'
'Polymers_'
'Limited:_'
'maclocks.com_'
'Orillia,_'
'Niagara_'
'beyond!_'
'is..._'
'Engineering-_'
'GTA..._'
'ap2v_'
'real-world_'
'discount,_'
'0124-4364210._'
'Insitute_'
'AP2V_'
'problogger_'
'2004,_'
'bloggers_'
'wanting_'
'blogs,_'
'Blogging_'
'akron_'
'nuphalt_'
'Coverage_'
'button_'
'testimonial._'
'Nu-phalt™_'
'lowensteins_'
'Writers,_'
'Academics,_'
'Journalists,_'
'Actors,_'
'Dancers,_'
'Models,_'
'Theatrical_'
'Filmmakers,_'
'Musicians,_'
'Craftspeople,_'
'Ceramicists._'
'vases_'
'votives_'
'holders,_'
'candles_'
'Glassware_'
'rockflow_'
'Audits,_'
'Diligence_'
'Evaluations._'
'this,_'
'kawasaki_'
'powersports_'
'motorcycles,_'
'Side-x-Sides_'
'watercraft._'
'ATV,_'
'SxS,_'
'Watercraft_'
'people!_'
'a-vibe_'
'(Avibe)_'
'greenscapes_'
'swfl_'
'Collier_'
'HOAs,_'
'SWFL_'
'acteon_'
'Recruit_'
'Outsaffing_'
'Acteon._'
'CIS._'
'CIS_'
'Acteon_'
'tio_'
'rico_'
'te_'
'ayuda_'
'Tio_'
'www.ukbride.co.uk_'
'Bride?_'
'Planning?_'
'Searching_'
'aquaforest_'
'Aquaforest_'
'Searchlight_'
'OCRs_'
'searchable._'
'version._'
'SP_'
'2016-2013-2010_'
'filmic_'
'best-looking_'
'life!_'
'leif_'
'Agreement_'
'(ISA)_'
'Leif_'
'Agreements_'
'copywriter_'
'Writer?_'
'quotation._'
'Copywriters_'
'kbs_'
'kameleon_'
'Kauai._'
'stockco_'
'agrifinance_'
'Funder._'
'purchases_'
'sheep_'
'cattle._'
'Agrifinance_'
'streets_'
'comforts_'
'techies,_'
'techies._'
'are,_'
'course,_'
'buzzword_'
'compliant!_'
'Great!_'
'stratique_'
'Specialises_'
'01827_'
'69772_'
'endwell_'
'phyisicans_'
'Physicians,_'
'composed_'
'visits._'
'(607)_'
'754-3863_'
'Endwell,_'
'covid-19,_'
'heindl_'
'Storage,_'
'GWh_'
'creditlink_'
'checks_'
'Landlords_'
'jade_'
'catering,_'
'Dorking,_'
'pasadena_'
'(piai)_'
'1936._'
'experts!_'
'Pasadena_'
'tahiti_'
'legends_'
'honeymoon_'
'Honeymoons_'
'Legends_'
'sunu_'
'chiropractic,_'
'homeopathy,_'
'nutrition._'
'Holistic_'
'Sunu_'
'jelingu_'
'Jelingu_'
'Creates_'
'potomac_'
'agent,_'
'Anita_'
'Centofanti_'
'biosignatures_'
'-30_'
'Biosignatures:_'
'Diagnosing_'
'exercise.com_'
'software?_'
'Exercise.com_'
'(tangible_'
'accountability._'
'zahn_'
'Zahn_'
'videoconferencing,_'
'videography,_'
'Antarctica._'
'Safaris,_'
'117311_'
'peg_'
'Peg’s_'
'yield,_'
'Peg_'
'craig_'
'studio;_'
'Craig_'
'Walker_'
'lux-lumen_'
'Lumen_'
'RGB_'
'LUX_'
'LUMEN_'
'circa_'
'hardwork._'
'visuals,_'
'identity,_'
'digital—we’re_'
'Circa_'
'mayestelles_'
'PLLC_'
'algarveproperty.com_'
'AlgarveProperty.com_'
'"#1_'
'Property"_'
'Algarve,_'
'Portugal,_'
'flats,_'
'ALGARVE_'
'PROPERTY_'
'.COM_'
'PORTUGAL_'
'Find,_'
'rifkin,_'
'livingston,_'
'levitan_'
'silver,_'
'respresent_'
'opportunities,_'
'bankruptcy_'
'reinsurance_'
'brokers/agents_'
'Mumbai?_'
'Maharashtra_'
'IRDAI,_'
'aviation,_'
'reinsurance._'
'qwaya_'
'rotation._'
'$149/month._'
'Qwaya_'
'jamaica_'
'17-story_'
'views_'
'Sea._'
'busness_'
'revolv:_'
'incontrol_'
'InControl_'
'schoolrunner_'
'easistore_'
'Easistore!_'
'Easistore_'
'hl_'
'ehf._'
'expedition_'
'Greenland_'
'Arctic_'
'travellers,_'
'HL_'
'purified_'
'Filtration_'
'soderholm_'
'blockpit_'
'calculation_'
'realized_'
'profits._'
'fiduciary_'
'legacies._'
'only._'
'Fiduciary_'
'gramin_'
'Gramin_'
'eek_'
'Eek's_'
'entrepreneurship._'
'bleeding_'
'biggy_'
'personalização_'
'recomendação_'
'keshani_'
'Co,_'
'Kingsbury_'
'Edgware_'
'kerr_'
'Wetland_'
'techbear_'
'presence,_'
'specificaly_'
'adjusted_'
'TechBear_'
'mayku_'
'tabletop_'
'Mayku_'
'Formbox_'
'answerwest_'
'extra_'
'reflection_'
'hiplink_'
'alert_'
'organization?_'
'paging_'
'notification._'
'soldano_'
'Kalamazoo_'
'Richland_'
'riley_'
'pasek_'
'canty_'
'Defect_'
'oceantools_'
'underwater_'
'hydrographic_'
'upstream_'
'inspection,_'
'(IRM)_'
'Underwater_'
'IRM_'
'fantasea_'
'charters_'
'Angeles._'
'parties!_'
'Charters_'
'Marina_'
'Del_'
'Rey,_'
'Innovation,_'
'Max._'
'Tamworth._'
'Boldmere,_'
'Four_'
'Barr,_'
'Bromwich_'
'Erdington._'
'Tamworth_'
'rdc_'
'Bucks_'
'jimmybar_'
'sugar,_'
'me...I'm_'
'Yummy!_'
'JiMMY!_'
'advalo_'
'Dubai?_'
'Advalo_'
'Prysmian_'
'high-technology_'
'Cables._'
'High-technology_'
'homeswing_'
'Vacaville_'
'Vallejo_'
'Property,_'
'Benicia_'
'Dixon_'
'HomeSwing_'
'hotfoot_'
'West._'
'forepont_'
'lp_'
'Partners…_'
'stillwell_'
'Benz_'
'Trucks._'
'buses_'
'Fuso._'
'doccafe.com_'
'DocCafe.com._'
'DocCafe_'
'DocCafe.com_'
'Employers,_'
'Retainer_'
'Redundancy_'
'Employers_'
'aisling_'
'alera_'
'sunsetting_'
'redirected_'
'aleragroup.com_'
'abk_'
'Warehouses,_'
'Factories,_'
'Listed/Manor_'
'Houses._'
'Wycombe,_'
'Slough,_'
'Countertops,_'
'Surfaces_'
'(407)_'
'781-5575_'
'Bride,_'
'Dresses,_'
'Bridesmaids,_'
'Gowns_'
'Barrie,_'
'Hamilton!_'
'2021,_'
'Bridesmaids_'
'Bride_'
'August_'
'1988_'
'Piraeus,_'
'deliver._'
'ser_'
'Energía,_'
'adapting_'
'Energía_'
'foleys_'
'Foleys_'
'Bistro_'
'Installs._'
'stopping_'
'fraudulent_'
'installs._'
'Installs_'
'changsha_'
'santech_'
'Changsha_'
'Bismuth,_'
'Gallium,_'
'Indium,_'
'Tin,_'
'Germanium_'
'Tellurium,_'
'alloy._'
'Bismuth_'
'Indium_'
'Gallium_'
'alidhra_'
'weavetech_'
'winder_'
'twister_'
'weaving_'
'25yrs_'
'Textile_'
'Specialists,_'
'candidate_'
'c..._'
'shadowtrack_'
'shipments_'
'secure._'
'Visibility_'
'lender._'
'sunstone_'
'therapeutics_'
'innovations._'
'deal,_'
'CVC_'
'lacefield_'
'Lacefield_'
'textiles,_'
'throw_'
'pillows_'
'pillows._'
'Throw_'
'Pillows_'
'sagar_'
'swingvy_'
'alerts_'
'Medical,_'
'sam*ink®,_'
'Solvent,_'
'Eco-Solvent,_'
'Dye-Sub,_'
'Hand-Sanitizer,_'
'Disinfectant-Cleaner_'
'Latex_'
'Dye_'
'Sub_'
'Sanitizer_'
'Disinfectant_'
'holo-light_'
'Rendering,_'
'Lincoln._'
'webenrich_'
'Enrich_'
'ebEnrich_'
'alsico_'
'Delivery,_'
'bei_'
'batavia_'
'Batavia_'
'Robust_'
'Slotted_'
'manuscripts,_'
'paintings,_'
'specimens,_'
'saver_'
'407-365-2400_'
'disabilities,_'
'Fences_'
'pools._'
'Saver_'
'Fence,_'
'consentia_'
'Consentia_'
'AP_'
'Consentia:_'
'Scanning,_'
'dom's_'
'marinaded_'
'meats_'
'begun_'
'Dom’s_'
'wicked_'
'happy._'
'Dom's_'
'Malden_'
'futuresign_'
'Arena_'
'Futuresign_'
'proimage_'
'itransact_'
'traded_'
'cost.Itransact_'
'Funds,_'
'ETFs,_'
'Notes,_'
'ETNs,_'
'portfolios,_'
'preservation_'
'endowments_'
'lamarca_'
'landry,_'
'accidents_'
'justice._'
'(515)_'
'225-2600._'
'frutiger_'
'Wheel_'
'wash,_'
'demucking_'
'jeevika_'
'Trust:_'
'Fifty_'
'Livelihood_'
'lovelystay_'
'LovelyStay,_'
'Lisboa,Porto,Algarve,Ericeira,Avoriaz,V.N._'
'Gaia,Matosinhos,V.R._'
'Santo_'
'António,Portugal,Sintra,Normandy_'
'equatorial_'
'bunkers_'
'bunker_'
'bunkering_'
'bentley_'
'Freedomsat_'
'ealing_'
'mencap_'
'viladomat_'
'Hospitality,_'
'Assets._'
'Spain,_'
'Alicante_'
'ivipanan_'
'Surat_'
'Gujarat_'
'surmasis_'
'waller_'
'mitchell_'
'reval_'
'Gravatt_'
'Mansfield._'
'Mt_'
'Wishart,_'
'nantucket_'
'Nantucket,_'
'Shoreditch._'
'#1!_'
'bconsulting_'
'AAA_'
'bikini_'
'beachwear!_'
'10%._'
'NCT_'
'innovideas,_'
'gurus,_'
'Ze,_'
'videography_'
'undeviating_'
'Promptness_'
'Innovideas_'
'dwell_'
'Dwell_'
'Salesforce's_'
'Dwell:_'
'spacio_'
'Chelmsford,_'
'baton_'
'Simulations’_'
'Adoption_'
'ERPsim,_'
'DAS,_'
'DAS_'
'Localizer_'
'imagineering,_'
'Dell_'
'mellor_'
'coachcraft_'
'Mellor_'
'Sarah_'
'iMassage_'
'go-live_'
'GLP,_'
'thought-of_'
'solution-finding_'
'Go-Live_'
'Pacific,_'
'oberoi_'
'Oberoi_'
'ross_'
'witmer_'
'Witmer…_'
'Witmer_'
'income,_'
'deposits,_'
'differentiate_'
'worcestershire_'
'Worcestershire._'
'musicounts_'
'Musicounts._'
'MusiCounts_'
'Alive_'
'startupsoft_'
'theirs._'
'don’t_'
'“rent”_'
'“clients”,_'
'StartupSoft_'
'fiasco_'
'identities,_'
'big._'
'Fiasco_'
'History._'
'Democracy._'
'jam_'
'amateur_'
'Pullman_'
'JAM_'
'Amateur_'
'enable2_'
'cic_'
'Interpreting_'
'Movers._'
'Do,_'
'metgroup_'
'sinking,_'
'cambodia_'
'Cambodia's_'
'lands,_'
'Phnom_'
'Pehn,_'
'Siem_'
'Reap,_'
'Sihanoukville_'
'provinces._'
'-IPS_'
'kr_'
'2019._'
'Guidelines_'
'HOAs_'
'Governments_'
'(Formerly_'
'dermclinic_'
'dermatological_'
'Starting_'
'malls_'
'Dermatologists_'
'client-side_'
'Permanent,_'
'0289259200_'
'Eviction_'
'renters_'
'tenant_'
'court,_'
'face-to-face_'
'brightmarbles_'
'consulting)_'
'spiegel_'
'utrera,_'
'Person._'
'Filing_'
'Fee,_'
'Seal,_'
'Now,_'
'Spiegel_'
'Utrera,_'
'ot_'
'ModernOT_'
'Pembroke,_'
'arycom_'
'Americas,_'
'air._'
'Americas._'
'drpco_'
'chocks,_'
'(205)_'
'925-3791_'
'.._'
'ProductsDiamond_'
'PCOH_'
'Storefront_'
'nutritional_'
'Formulas_'
'amsure,_'
'atcfsi_'
'Amsure,_'
'Amsure_'
'simplistics_'
'smiling!_'
'Simplistics_'
'jervis_'
'Librarianship_'
'blackhawk_'
'Abdelnour_'
'President_'
'York-based_'
'Bullion_'
'Abdelnour-_'
'President-CEO_'
'sekuenz_'
'(Return_'
'Investment)_'
'Sekuenz_'
'360º_'
'frontier_'
'turg_'
'mdclick,_'
'Accountable_'
'(ACO)_'
'seareal_'
'SeaReal_'
'alternativesoft_'
'Selection,_'
'AlternativeSoft_'
'fitbot_'
'Cancel_'
'300feetout_'
'Immersive_'
'unsecured_'
'micro-lending_'
'dominant_'
'Salary_'
'www.tripsite.com_'
'Tripsite_'
'Bike/Barge_'
'eastpoint_'
'strategists_'
'Eastpoint_'
'datum_'
'datacentres_'
'Datacentres_'
'service-enhanced_'
'colocation_'
'Farnborough._'
'Datacentre_'
'Colocation_'
'fanatic_'
'Bristol._'
'Fanatic_'
'rid-a-bug_'
'exterminating_'
'1-800-682-5901._'
'bug_'
'estimate._'
'Rid-A-Bug:_'
'Virtuoso_'
'caliber_'
'Documentary_'
'appalachian_'
'railcar_'
'Appalachian_'
'Railcar_'
'AAR_'
'FRA_'
'switching,_'
'connectamericas_'
'ConnectAmericas,_'
'ConnectAmericas_'
'hpic_'
'medicines,_'
'HPIC_'
'populus_'
'identify,_'
'hires_'
'minger_'
'Minger_'
'Vegas-quality_'
'tremont_'
'sheldon_'
'robinson_'
'mahoney_'
'Tremont_'
'Sheldon_'
'Robinson_'
'Mahoney_'
'203-212-9075._'
'szott_'
'Holly._'
'Holly,_'
'Szott_'
'todayâs_'
'competitve_'
'organizationsâ_'
'continued_'
'espress_'
'counting._'
'Espress_'
'marketing;_'
'gtec_'
'Webpage_'
'nurses._'
'&read_'
'MMed_'
'Eduction_'
'app.goalplan_'
'valet_'
'valet,_'
'shuttles_'
'datatex_'
'equip,_'
'uplift_'
'realise._'
'g_'
'Valves_'
'Valve_'
'prismic.io_'
'fetch_'
'editable_'
'Prismic_'
'cnm_'
'cantieri_'
'navali_'
'mediterraneo_'
'shipyard_'
'2003._'
'CNM_'
'Cantieri_'
'Navali_'
'Mediterraneo_'
'pozitive_'
'publicis_'
'brands..._'
'-Lead_'
'neighbor_'
'coverage._'
'Expats_'
'scandia-hus_'
'British,_'
'Beautiful._'
'Scandia-Hus._'
'Scandia-Hus_'
'baths_'
'kitchen!_'
'coega_'
'Protected_'
'Modesty_'
'swimwear,_'
'fashions_'
'colours_'
'patterns._'
'hats_'
'COEGA_'
'Sunwear_'
'less-privileged_'
'Well-being_'
'Bangladeshi_'
'merging_'
'fellowship_'
'OC_'
'kingfisher_'
'electrika_'
'electrician._'
'Shore._'
'EMERGENCY_'
'SERVICE._'
'Electrika_'
'eyesouth_'
'(404)_'
'953-4095_'
'affiliation_'
'info._'
'riverwalk_'
'sunset_'
'charters,_'
'self-captained_'
'pontoon_'
'Milwaukee._'
'Milwaukee,_'
'byte9_'
'Headless_'
'CMS,_'
'Apps._'
'Node,_'
'KOA,_'
'React,_'
'GraphQL,_'
'Elastic_'
'worlinty_'
'Offer,_'
'returns!_'
'faram_'
'brewers_'
'Nanaimo:_'
'Comox._'
'taxagility_'
'Bose,_'
'Panasonic,_'
'Denon,_'
'Marantz,_'
'Monster,_'
'GoPro,_'
'EcoXGear_'
'seeing_'
'Remember_'
'SERVICE!_'
'Dealer-_'
'Scarborough,_'
'b-612_'
'B-612_'
'Eyes_'
'amek_'
'purpose,_'
'flexibility_'
'frustrations_'
'home–we_'
'LifeDesignTM._'
'honored_'
'numer_'
'theraplay_'
'devicealliance_'
'Cal._'
'Cal_'
'hitech_'
'Hitechsoftware,_'
'Hitech_'
'sunwiz_'
'specialty,_'
'for:_'
'Retailers,_'
'Sunwiz_'
'bergand_'
'addiction,_'
'same._'
'Safaris_'
'conscientious_'
'herolds_'
'Ashley's_'
'Charleston._'
'Charlie_'
'Hall._'
'Herold's_'
'Harolds_'
'context_'
'Decades_'
'mutton_'
'Tractor_'
'Exmark,_'
'Stihl_'
'Exmark_'
'surtec_'
'deutschland_'
'SurTec_'
'develops,_'
'Pre-treatment,_'
'Electroplating._'
'Custom-made_'
'idaksh_'
'Idaksh_'
'Mangalore,_'
'Udupi,_'
'Mangalore_'
'Udupi_'
'IDaksh_'
'ibiza,_'
'Ibiza_'
'pdms_'
'"Quran_'
'Majeed"_'
'PakData_'
'acebsa_'
'ACEBSA_'
'rewards!_'
'movies,_'
'partition_'
'Modernfold,_'
'Skyfold,_'
'Moodwall_'
'Partition_'
'henkes_'
'Henkes-Welsh_'
'luther_'
'westside_'
'Volkswagen:_'
'wrights_'
'dedication_'
'will._'
'trained,_'
'Wrights_'
'Recoveries_'
'mcgovern_'
'Needham_'
'Westwood_'
'Wellesley_'
'federation-orlando_'
'cwm_'
'NPDES,_'
'Legionella_'
'Analysis._'
'jefferson_'
'maguire_'
'Jefferson_'
'Maguire_'
'01329288688_'
'oilskins,_'
'jackets,_'
'vests_'
'lifestyles._'
'Oilskin_'
'OutbackTrading.com_'
'openspace_'
'invests_'
'Shane_'
'Chesson_'
'Hian_'
'Goh_'
'parents,_'
'Grossmont_'
'dwellant.com_'
'Dwellantâs_'
'revolutionise_'
'Dwellant:_'
'in-the-cloud_'
'enshrine_'
'0638727325_'
'Chromatography_'
'separation_'
'purification_'
'columns,_'
'cartridges,_'
'autosampler_'
'vials_'
'caps,_'
'HPLC,_'
'GC,_'
'SPE,_'
'Dissolution_'
'itthynk_'
'ITTHYNK_'
'Micro-Office_'
'Decades._'
'Practices._'
'maiglobe_'
'English-speaking_'
'Multiple_'
's:craft_'
'plantation_'
'blinds_'
'light,_'
'Shutters_'
'Plantation_'
'Shutter_'
'dasigno_'
'goal,_'
'paths,_'
'doing,_'
'gamify,_'
'100,_'
'connect,_'
'emerge._'
'Dasigno_'
'functioning_'
'xenophon_'
'digital/social,_'
'affairs,_'
'Xenophon_'
'budgets,_'
'galas,_'
'407-375-0386_'
'407-375-9728._'
'Fundraisers,_'
'legere_'
'LARGEST_'
'ARCHITECTURAL_'
'MILLWORK_'
'PRODUCERS_'
'EAST_'
'COAST._'
'millwork._'
'guess_'
'ligchine_'
'boom_'
'operated,_'
'laser-guided_'
'screeding_'
'flatness_'
'levelness_'
'Screeds_'
'countrywide_'
'visas_'
'Countrywide_'
'Visas_'
'airpos_'
'AirPOS_'
'EPOS_'
'ePOS._'
'newark_'
'Happening_'
'inspiration._'
'ambleside_'
'practise_'
'Flag_'
'applique_'
'flags,_'
'flag-related_'
'Flags_'
'homebuyers_'
'jloop_'
'JLOOP:_'
'njoy_'
'correction_'
'patient-first_'
'mindset_'
'philanthropic_'
'nJoy_'
'LASIK.™_'
'zobello.com_'
'Discount._'
'Avail_'
'COD_'
'Return._'
'Zobello_'
'beb_'
'prudently_'
'estate._'
'Capital:_'
'activist_'
'purpose._'
'Activist_'
'nowofol_'
'kunststoffprodukte_'
'MOPP_'
'Films,_'
'Aeronautic,_'
'Architecture._'
'NOWOFOL:_'
'MOPP,_'
'Polypropylene_'
'Films!_'
'dryfast_'
'normal._'
'laughing_'
'cocktails_'
'blanco_'
'tequila_'
'lightly_'
'sweetened_'
'agave_'
'nectar._'
'Laughing_'
'Cocktails_'
'Margarita_'
'magicfirm_'
'Magicfirm_'
'MBot3D_'
'kugler_'
'kandestin_'
'malpractice,_'
'liability._'
'Insolvency_'
'lc_'
'drives._'
'cannot._'
'Hospitals,_'
'Organisations_'
'Health-Care_'
'lifemarque_'
'remax_'
'pembroke_'
'niet:_'
'NIET’s_'
'impacting_'
'275,000_'
'2.75_'
'achievement._'
'NIET_'
'intrasonics_'
'triggering_'
'highland_'
'Training:_'
'pcf_'
'PCF_'
'system!_'
'Primavera,_'
'1970_'
'NATE_'
'frontrow_'
'Portfolio._'
'subscription._'
'neteon_'
'programmer_'
'leaking_'
'Rocks_'
'pilyq_'
'Swimwear,_'
'(PilyQ)_'
'healsy_'
'glucose_'
'adapts_'
'patient’s_'
'physiology_'
'habits._'
'patient's_'
'unanico_'
'fesil_'
'ferroalloys,_'
'metals,_'
'refractories,_'
'cored_'
'(...)_'
'uptown_'
'napa,_'
'downtown's_'
'famed_'
'stunningly_'
'masterpiece_'
'showcases_'
'acts,_'
'landmark,_'
'phenomenal,_'
'seat_'
'seat!_'
'Boz_'
'Scaggs,_'
'Merle_'
'Haggard,_'
'Cyndi_'
'Lauper,_'
'BB_'
'King,_'
'Thorogood,_'
'Lyle_'
'Lovett,_'
'must-see_'
'Valley!_'
'Multi-Family,_'
'blavity_'
'millennials_'
'pushing_'
'boundaries_'
'agency…_'
'brenner_'
'Brenner_'
'catalog,_'
'portrait_'
'photographer_'
'Product,_'
'Catalog,_'
'Portrait_'
'investigative_'
'divisions,_'
'Investigative_'
'nation\'s_'
'financial,_'
'investigators,_'
'Investigate_'
'Inform_'
'roof!_'
'enapps_'
'Enapps_'
'gala_'
'Toronto;_'
'airfare_'
'vacations,_'
'1.866.458.4252_'
'Canada-_'
'Tickets,_'
'servicespan_'
'ServiceSPAN's_'
'impeccably_'
'ServiceSPAN_'
'Pathway_'
'Decisions_'
'favi_'
'sleek_'
'mounts,_'
'keyboards,_'
'Entertainment:_'
'Orders_'
'$35+_'
'bloop_'
'filmmakers._'
'Filmmakers_'
'orpheus_'
'Reef._'
'Accomodation_'
'Orpheus_'
'rm_'
'boulanger_'
'Representation,_'
'Eco-taxation_'
'Posting_'
'RM_'
'Boulanger_'
'techville_'
'spot._'
'Howeverboards_'
'KITS_'
'Phone,_'
'Tablet_'
'Laptop_'
'encompass_'
'cumberland_'
'engagement/bridal,_'
'pearls,_'
'colored_'
'gemstones,_'
'appraisals._'
'Vinings_'
'Cumberland._'
'Cumberland_'
'silega_'
'kick-off_'
'Favorite_'
'Silega_'
'stonemark_'
'Stonemark_'
'ѕuссеѕѕful_'
'dеlivеry_'
'оf_'
'соmрlеx_'
'рrоjесtѕ._'
'Lоs_'
'Angеlеѕ_'
'Cоnѕtruсtiоn_'
'Mаnаgеrѕ_'
'Ѕtоnеmаrk_'
'Соnѕtruсtiоn_'
'Mаnаgеmеnt_'
'rv,_'
'tablet_'
'delaer_'
'ejeeva_'
'Ejeeva,_'
'Applications,_'
'eJeeva_'
'designveloper_'
'lexmedia_'
'LexMedia,_'
'expression_'
'century._'
'LexMedia:_'
'Mass._'
'IA,_'
'softpoint_'
'Softpoint_'
'Consultores_'
'Empresa_'
'consultoría_'
'tecnológica_'
'wistar_'
'Hangzhou_'
'Wistar_'
'actuator_'
'motor,_'
'rack_'
'motor._'
'company\'s_'
'praise_'
'Tubular_'
'Actuator_'
'outcor_'
'Bookkeeping,_'
'Payroll,_'
'Secretarial_'
'Direction_'
'www.outcor.co.za_'
'Outcor,_'
'annapolis_'
'Spanning_'
'flaberry.com_'
'upto_'
'flaberry.com._'
'mins._'
'Flaberry_'
'velocidata_'
'VelociData_'
'kinds._'
'Real-time,_'
'friction-free_'
'Velocidata_'
'2014_'
'believes_'
'rethink_'
'Think_'
'ooh!_'
'Execution-_'
'1994!_'
'chockfull_'
'rentals!_'
'Ooh!_'
'Events-_'
'Page._'
'Coordination,_'
'tuft,_'
'lach,_'
'jerabek_'
'custody_'
'651-771-0050_'
'tovi_'
'mess_'
'COVID-19._'
'deserves:_'
'stability,_'
'Regain_'
'Flyers_'
'Leaflets_'
'Leaflet_'
'Flyer_'
'dispatch_'
'mielle_'
'MIELLE_'
'crowded_'
'susquehanna_'
'(SVPS)._'
'Aligning_'
'gospel_'
'sacredness_'
'Align_'
'Services)_'
'r_'
'carpenter_'
'Shawnee,_'
'Bristow_'
'careflex_'
'CareFlex_'
'Careflex_'
'eller_'
'detrich,_'
'Eller_'
'Detrich._'
'Oklahoma._'
'italy_'
'Cook,_'
'totally_'
'motivated,_'
'meridian_'
'FMWF_'
'3chem_'
'VOC_'
'specifications._'
'Aircraft,_'
'neuraltus_'
'Enhancement_'
'Such_'
'Penis_'
'Pumps,_'
'Extenders._'
'CLICK_'
'Extenders_'
'softtek_'
'Softtek_'
'Writing,_'
'destin_'
'Burden_'
'attracts_'
'Pensacola,_'
'atmos_'
'uav_'
'hiring!_'
'Atmos_'
'effortlessly_'
'gather_'
'geospatial_'
'end,_'
'Marlyn,_'
'fixed-wing_'
'drone_'
'(uav)._'
'cameras:_'
'SONY,_'
'Micasense_'
'(Altum_'
'RedEdge_'
'MX)_'
'ATMOS_'
'hubbard_'
'snitchler_'
'parzianello_'
'Hubbard_'
'Snitchler_'
'Parzianello_'
'PLC_'
'313-672-7300._'
'mazaru_'
'happen_'
'wisely_'
'Mazaru_'
'bhaane_'
'celebrates_'
'individuality._'
'Bhaane_'
'millennial._'
'squiby_'
'supermarkets_'
'consolidator_'
'APPi_'
'Printing,_'
'euro_'
'motorcars_'
'devon_'
'soc_'
'ones'_'
'toughest_'
'granzor_'
'engineerings_'
'Granzor_'
'Engineerings_'
'lmrkts_'
'mathematical_'
'counter-party,_'
'settlement_'
'exposures._'
'LMRKTS_'
'arise_'
'agenda_'
'institutions._'
'marry_'
'growth,_'
'Arise_'
'rainharvest_'
'Stormwater_'
'phases_'
'surveying,_'
'permitting_'
'synapcell_'
'translational_'
'biomarkers_'
'compounds_'
'vivo._'
'vivo_'
'compound_'
'SynapCell_'
'ereach_'
'eREACH_'
'Diego-based_'
'white-hat_'
'eREACH:_'
'White-Hat_'
'Activity,_'
'computing,_'
'VMware_'
'placer_'
'spca_'
'spay_'
'neuter_'
'carmel_'
'Sea-_'
'Monterey_'
'business-pleasure-groups._'
'Carmel,_'
'arkratos_'
'Commodities_'
'KRATOS_'
'victor_'
'allen's_'
'tasting,_'
'Perfection_'
'1979_'
'Value-Added_'
'Technology's_'
'mil-tek_'
'trash_'
'compactors,_'
'compactors_'
'crushers.Recycling_'
'Compactors_'
'Balers._'
'inbet_'
'Inbet_'
'Igaming,_'
'Lottery_'
'conquered_'
'InBet_'
'cks_'
'exit_'
'clubs,_'
'tw_'
'dominates_'
'citysocializer_'
'Citysocializer,_'
'megacool_'
'Megacool!_'
'highlights_'
'Referrals,_'
'hcl_'
'downhole_'
'clamping_'
'Specilist_'
'Hose_'
'Clamps,_'
'Ties_'
'Pile_'
'Bath,_'
'Clamps_'
'ankota_'
'hospitals._'
'Avoiding_'
'Preventable_'
'Hospitalizations_'
'ambika_'
'Ambika_'
'.Net,_'
'antenna_'
'1947._'
'uty_'
'hatcher_'
'Foundation,_'
'NeuroPsych_'
'legacies_'
'vibe_'
'TMCs_'
'Vibe_'
'somatic_'
'(heating,_'
'ventilation,_'
'controls),_'
'plumbing,_'
'sprinkler_'
'Somatic_'
'sanjole_'
'Over-the-air_'
'5G._'
'5G,_'
'LTE,_'
'LTE-A_'
'Aggregation._'
'Sanjole:_'
'5G_'
'LTE_'
'Navajo_'
'(Kayenta_'
'District)_'
'alcaeus_'
'(diwtoken.com)_'
'blockchain-based_'
'secures_'
'granting_'
'decentralised_'
'password_'
'come._'
'Token_'
'Decentralize_'
'Password_'
'enovate_'
'Flexite!Exam_'
'(Digital_'
'exams),_'
'Flexite!Fire_'
'(For_'
'depts),_'
'Flexite!Event_'
'(Event_'
'management),_'
'Unit_'
'(Crisis_'
'managment)_'
'service-tech_'
'affects_'
'employees’_'
'STC’s_'
'Service-Tech_'
'belle_'
'fleur_'
'smell_'
'beautiful._'
'gainesville_'
'assoc_'
'northeast_'
'Georgia’s_'
'multispecialty_'
'tor_'
'zoos_'
'a.m._'
'p.m._'
'Data-informed_'
'enrollment,_'
'internationalization_'
'DrEducation_'
'Trends_'
'01727_'
'762300._'
'Torquay,_'
'Anglesea,_'
'Aireys_'
'Apollo_'
'Surfcoast_'
'cain_'
'wait-state_'
'migration._'
'sudburys_'
'analyse_'
'direction._'
'Northland_'
'vantage_'
'refinancing_'
'behalf,_'
'Position_'
'millenniumit_'
'esp_'
'MillenniumIT_'
'ESP_'
'REIMAGINE._'
'REINVENT_'
'39_'
'sold,_'
'fabricated_'
'compressors,_'
'lowe_'
'T._'
'firm..._'
'voicetech_'
'cox_'
'Cox_'
'alarm,_'
'smoke_'
'controls,_'
'GCC_'
'Country._'
'integrity,_'
'remembered_'
'food._'
'seems_'
'Holmes_'
'seidner_'
'Randolph_'
'Dentures_'
'Partials,_'
'Extractions,_'
'Implants,_'
'Crowns,_'
'Whitening,_'
'Fillings,_'
'avana_'
'AVANA_'
'Reverse_'
'negotiating_'
'Optics._'
'License_'
'kangaroo_'
'Rewards_'
'hurt_'
'360®_'
'dyne_'
'(dyno)_'
'motors,_'
'engines,_'
'turbines,_'
'transmissions_'
'Dyno_'
'parley_'
'next-generation,_'
'Collaborative_'
'IME_'
'employers,_'
'Evaluations_'
'Wisconsin,_'
'Minnesota,_'
'ingtech_'
'datri_'
'registry_'
'DATRI_'
'Unrelated_'
'Donor_'
'Registry._'
'Donors_'
'Registry_'
'technicweb_'
'Technicweb_'
'instructions._'
'4rm+ula_'
'change-agents,_'
'unexpected,_'
'client-centric_'
'resilient,_'
'4RM+ULA_'
'infoplus_'
'e-Commerce_'
'warehouses,_'
'wholesalers._'
'afti_'
'watchdog_'
'AFTI_'
'Watchdog_'
'WatchDog_'
'oncovet_'
'Anatomopathology_'
'(histological_'
'cytological_'
'analysis)._'
'Oncovet_'
'hag_'
'Fire,_'
'shutter_'
'sets,_'
'curtains,_'
'HAG_'
'bible_'
'Kindle_'
'rockford_'
'gastroenterology_'
'board-certified_'
'Gastroenterologists_'
'Subspecialties_'
'glide_'
'disclosure_'
'TDS,_'
'SPQ_'
'AVID_'
'Seller_'
'Disclosures_'
'egamingservices_'
'Operators_'
'wilshire_'
'skyline_'
'service-forward_'
'residents,_'
'Wilshire_'
'Skyline_'
'Service-forward_'
'Asia-Pacific_'
'Representative_'
'awards,_'
'festivals_'
'Staging,_'
'<span_'
'class=”notranslate”>White_'
'Baltic</span>_'
'speciality_'
'1880_'
'kiyonna_'
'Kiyonna.com_'
'10-32._'
'formal,_'
'casual,_'
'evening,_'
'blouses,_'
'Kiyonna_'
'joão_'
'pedroso_'
'just4uloan_'
'doorstep._'
'Just4uloan_'
'Loans._'
'defacto_'
'enterprise-quality_'
'budgeting,_'
'forecasting,_'
'consolidation,_'
'Smartest,_'
'silverback_'
'Toledo._'
'popcorn_'
'popcorn._'
'cause._'
'Good._'
'Popcorn_'
'louisville_'
'KY._'
'edmarc_'
'life-threatening_'
'Edmarc_'
'playyourcourse,_'
'game._'
'PlayYourCourse._'
'Levels_'
'PlayYourCourse_'
'aquabrass_'
'faucets,_'
'cirrus9_'
'Carbon60._'
'clouds_'
'Carbon60_'
'zelus_'
'Zelus_'
'inception._'
'uncertain_'
'claritum_'
'procurement._'
'forecasting._'
'Claritum_'
'(ncsm)_'
'engage._'
'spoke_'
'topics,_'
'Spoke_'
'Relevant_'
'finedine_'
'digitizing_'
'Menus_'
'bergmann_'
'zwerdling_'
'Democrats_'
'Bergmann_'
'Zwerdling_'
'Democratic_'
'pea_'
'pod_'
'maternity_'
'Pregnant_'
'mums_'
'comfy-as,_'
'heroes._'
'Dresses._'
'Jeans._'
'Workwear._'
'Every-day_'
'essentials._'
'bump_'
'Forever-wear_'
'aarupadai_'
'veedu_'
'AVIT_'
'Nadu_'
'UG,_'
'placement,_'
'admission,_'
'off,_'
'eligibility,_'
'Tamilnadu_'
'coffex_'
'Adelaide,_'
'│_'
'equis_'
'Biomass_'
'CHP_'
'accreditations_'
'permits._'
'Equis_'
'Delaware,_'
'year-round,_'
'concerts._'
'acting,_'
'Instensive,_'
'two-week_'
'Chorus,_'
'Tour,_'
'Songbook_'
'Bound_'
'Tour._'
'endeavors_'
'usa/_'
'creditcorp_'
'acceptance_'
'cars!_'
'ensign_'
'Singapore;_'
'destinations,_'
'clearance,_'
'lodgable_'
'better!_'
'10's_'
'100's_'
'Lodgable_'
'Airbnb,_'
'HomeAway,_'
'Booking.com_'
'company's_'
'accouting,_'
'SMSF_'
'Narrabeen,_'
'Beaches._'
'wwa_'
'11howard_'
'Howard,_'
'207-room_'
'SoHo_'
'Scandinavian_'
'hyperlocalism._'
'Soho_'
'rls_'
'RLS_'
'LAW_'
'commercially_'
'waltrump_'
'Offer's_'
'Ankit_'
'Bhagat_'
'1990._'
'UMN_'
'Investigating_'
'CMD's_'
'PRWatch_'
'ALEC,_'
'Koch_'
'brothers,_'
'Scott_'
'Walker,_'
'spin_'
'disinformation_'
'nations_'
'guidance,_'
'leaders,_'
'whitefox™_'
'ben_'
'hyatt_'
'reporters_'
'Ben_'
'Hyatt_'
'Potential_'
'greentom_'
'Greentom:_'
'Smooth_'
'ride,_'
'fold,_'
'design!_'
'greenest_'
'stroller_'
'Greentom.com_'
'token_'
'of._'
'Protocol,_'
'qui_'
'redonne_'
'pouvoir_'
'dâachat_'
'sp3_'
'Utilizing_'
'stellarise_'
'3137_'
'3550._'
'superb_'
'Superb’s_'
'GXM_'
'repeat_'
'Superb_'
'(GXM)_'
'-&nbspsolid_'
'grail_'
'acre_'
'sanctuary_'
'resides_'
'lakeside,_'
'Bancroft,_'
'dixline_'
'Galva,_'
'Santos_'
'ceda-_'
'CEDA_'
'donate_'
'CEDA-_'
'Equality_'
'CEDA,_'
'onstage_'
'Perspective_'
'OnStage_'
'Blog:_'
'Publication_'
'toilet,_'
'unit,_'
'sanitation_'
'Removal._'
'371994_'
'Toilet,_'
'Unit,_'
'Sanitiser_'
'Interested_'
'esthetician_'
'stylist?_'
'Cosmetology_'
'ecuanros_'
'ecuadorian_'
'varieties_'
'TESSACORP_'
'sunnyridge_'
'j_'
'k_'
'distinction,_'
'leadership._'
'defining_'
'Sprinklers,_'
'backflow_'
'waterworks_'
'spices_'
'type._'
'a&m_'
'Ranchi._'
'Promotion,_'
'Relation._'
'Communication:_'
'Ranchi_'
'bigbridge_'
'ontwikkeling_'
'volgens_'
'hoogste_'
'standaarden._'
'BigBridge,_'
'BigBridge_'
'computype_'
'CompuType_'
'surveillance_'
'Belleville,_'
'Compu-type_'
'interactions,_'
'competency_'
'high-value_'
'zippity_'
'convenience!_'
'deuce_'
'wristbands._'
'#1._'
'Look_'
'Deuce._'
'Wristbands_'
'Apparel._'
'motawi_'
'tileworks_'
'craftsman_'
'Tileworks_'
'Tiles_'
'sustain_'
'preserve_'
'wealth._'
'trilogy_'
'tutoring_'
'tutor_'
'classroom,_'
'portal,_'
'unrivaled_'
'Tutor_'
'pr,_'
'greece_'
'vibrant,_'
'bobcat_'
'worksite_'
'reincubate_'
'Reincubate:_'
'stylebee_'
'(ycs15)_'
'minute,_'
'vetted_'
'occasions._'
'STYLEBEE_'
'tapa:_'
'barra_'
'restaurante_'
'Tapa!_'
'Tapas,_'
'Tapa,_'
'aries_'
'Federal,_'
'Organizations._'
'Packet_'
'Tested,_'
'scratch:_'
'inception,_'
'specification,_'
'prototype,_'
'full-scale_'
'SVI_'
'dynalock_'
'manausa_'
'thorough,_'
'representation._'
'Tallahassee_'
'Manausa_'
'Shaw_'
'Minacci,_'
'rto_'
'91165_'
'Course?_'
'fitness,_'
'visa._'
'tivin,_'
'l.l.c._'
'Mid-City,_'
'Wi-Fi._'
'Hollywood_'
'millerson_'
'Millerson_'
'Agent,_'
'Flats._'
'Millerson.com_'
'logic_'
'Partner,_'
'krittenbrink_'
'Krittenbrink_'
'Preservation_'
'IMCU_'
'member-owned,_'
'nonprofit,_'
'bettering_'
'Members_'
'Union:_'
'dooge_'
'veneers,_'
'veneers_'
'Dooge_'
'Veneers_'
'Veneer._'
'eguru(ethnus_'
'mock_'
'subject_'
'Mock_'
'imgn.pro_'
'game,_'
'curran_'
'High-End_'
'Gloster,_'
'Barlow_'
'Tyrie,_'
'Rausch_'
'Classics,_'
'Sifas,_'
'Manutti_'
'Botania._'
'High-end_'
'lee-engineering_'
'Worth._'
'System,_'
'Drain_'
'Irrigation,_'
'Drainage,_'
'bucksport_'
'Bucksport_'
'Bucksport,_'
'pa-co_'
'Pa-Co_'
'Les_'
'Éclairages_'
'PACO_'
'romed_'
'responsibility,_'
'sprinly_'
'healthfully_'
'amazing._'
'cooking,_'
'commitments_'
'Chef-Inspired_'
'Plant-Based_'
'Sprinly_'
'reliant_'
'wastewater,_'
'potable_'
'digestion_'
'Reliant_'
'bolted_'
'tanks_'
'brisbane_'
'well-resourced_'
'2km_'
'Marina,_'
'Hardstand_'
'mimo_'
'Monitors._'
'cg_'
'Exceed_'
'wellsite_'
'Drilling,_'
'Completions,_'
'Abandonment,_'
'Disposal,_'
'Salt_'
'Cavern_'
'Wellsite_'
'Supervision_'
'CFP®_'
'CFP_'
'globelynx,_'
'journalists_'
'now!._'
'gcsi_'
'State-of-the-art_'
'Call:_'
'(856)_'
'728-8228._'
'GCSI_'
'imci_'
'IMCI_'
'delahaye_'
'item_'
'considerably,_'
'140_'
'offers,_'
'Alliance._'
'kaleidoscope_'
'majority_'
'difficulties_'
'Kaleidoscope_'
'Disabled_'
'Crowdsourced_'
'tee_'
'Enthusiasts_'
'teknology_'
'20/20_'
'Teknology_'
'communications,_'
'ginsberg+chan_'
'Central._'
'2010._'
'Ginsberg+Chan_'
'Merchants_'
'boardpro_'
'Consolation._'
'30-Day_'
'Trial._'
'BoardPro_'
'Energize_'
'Plan._'
'markson_'
'sparks_'
'Markson_'
'Sparks!_'
'Since1982,_'
'Publicity,_'
'Celebrity_'
'Wheat_'
'Ridge,_'
'belhurst_'
'salon,_'
'shop,_'
'Finger_'
'Castles_'
'branching_'
'Branching_'
'behavior._'
'Lexus,_'
'Viejo,_'
'Bernadino,_'
'Corona_'
'(cfp)_'
'processed_'
'seafood_'
'Braintree,_'
'jansen_'
'esteem..._'
'magnetica_'
'superconducting_'
'magnets,_'
'gradient_'
'coils_'
'frequency_'
'(RF)_'
'coils._'
'13485_'
'Magnetica_'
'prokop_'
'Prokop_'
'tanner_'
'anhydrous_'
'Anhydrous_'
'tupps_'
'Mckinney,_'
'rules._'
'McKinney,_'
'underwritten_'
'Lloyd&#039;s._'
'Cancellation_'
'(with_'
'Adverse_'
'Appearance),_'
'annenberg_'
'exhibiting_'
'state-of-the-art,_'
'photographers._'
'bitdam_'
'BitDam_'
'content-borne_'
'contained_'
'Messaging._'
'Attacks_'
'Pre-delivery_'
'Bitdam_'
'?_'
'Bhutan,_'
'Year,_'
'Bhutan_'
'sazze_'
'DealsPlus_'
'codes,_'
'coupons,_'
'DealsPlus:_'
'shakers_'
'dreams...._'
'Shakers_'
'attraktion!_'
'4D_'
'XD_'
'Theaters,_'
'Domes_'
'Movies_'
'Word._'
'Attraktion!_'
'utilized_'
'retarget_'
'Booth_'
'webinfotech_'
'WhatsApp_'
'+91_'
'8017700167_'
'@Webinfotech_'
'groundwork_'
'supply._'
'Prefabrication,_'
'Cellcore,_'
'Claymaster_'
'Clayboard_'
'accompanying_'
'Reinforcing_'
'Prefabrication_'
'pelican_'
'litho,_'
'01296_'
'422100._'
'Litho,_'
'Aylesbury_'
'Pelican_'
'self-storage_'
'weeks_'
'credentialed_'
'funds._'
'Governance_'
'COMMITMENT_'
'chose_'
'involves_'
'dedication._'
'earning_'
'our…_'
'paleso_'
'Queenslander's_'
'ensured_'
'stood_'
'accountingcoach_'
'program?_'
'certificate!_'
'CenturyFiber_'
'manufactuere_'
'interconnect_'
'wall,_'
'rack,_'
'OSP._'
'Enclosure_'
'turner_'
'Knoxville_'
'at3_'
'AT3_'
'AT³_'
'techspark_'
'pronel_'
'Durban_'
'Durban's_'
'prodsmart_'
'trouble_'
'floor?_'
'Prodsmart's_'
'Prodsmart_'
'samis+company_'
'handled_'
'Samis_'
'witness_'
'(WWI)_'
'protected_'
'pollution,_'
'droughts,_'
'floods_'
'conflict,_'
'investigate,_'
'causes_'
'Action,_'
'sequent_'
'complicated,_'
'coordinated._'
'(Physician_'
'Partners)_'
'papaya_'
'cmj,_'
'Adirondack_'
'Glens_'
'assemblies._'
'Prototyping_'
'Lake,_'
'red-fern_'
'Blackburn,_'
'Bolton,_'
'CALL_'
'01254_'
'300030._'
'Blackburn_'
'cmswire_'
'obsess_'
'universe._'
'allowance._'
'eli5_'
'ship,_'
'SMEs,_'
'Eli5_'
'gnu_'
'Gnu_'
'Johannesburg_'
'size;_'
'Cushion_'
'Pros:_'
'Cushions_'
'winn_'
'BusinessOwners._'
'WHERE_'
'KNOWLEDGE,_'
'STRENGTH_'
'COURAGE_'
'DELIVER_'
'AMBITION_'
'Fortus_'
'provakil_'
'whenever_'
'date,_'
'becomes_'
'Provakil_'
'Supercharge_'
'curvo_'
'preference_'
'Curvo,_'
'Chains_'
'Curvo_'
'avis_'
'Cork,_'
'Shannon,_'
'Knock,_'
'Kerry,_'
'Derry._'
'jim_'
'joseph_'
'compelling,_'
'Jews._'
'religion_'
'belief,_'
'assessing_'
'unflinchingly_'
'confronting_'
'fundamental_'
'Commission_'
'Religious_'
'UCIRF_'
'c&l_'
'C&L_'
'sweeping,_'
'Sweeping_'
'samuel_'
'hale_'
'eliminates_'
'claims._'
'Comp_'
'waw_'
'Customer-owned_'
'roof._'
'WAW_'
'sundt_'
'courage_'
'youth._'
'celia_'
'hammond_'
'tust_'
'rescues_'
'stray_'
'cats_'
'neutering_'
'(rbs_'
'group)_'
'auditing,_'
'assembly,_'
'pcb_'
'rework_'
'yrs_'
'Exp.;_'
'ISO13485;_'
'softpress_'
'newsletters,_'
'Freeway,_'
'Exhibeo,_'
'Chroma_'
'Mac._'
'Softpress_'
'Â»_'
'Rather_'
'Strategies._'
'Pirrotti_'
'GGBA_'
'WORLD'S_'
'FIRST_'
'CHAMBER_'
'COMMERCE_'
'optimal,_'
'CONFIDENTIAL_'
'QUOTE_'
'Articles,_'
'ACCESS_'
'REFERENCES_'
'RESOURCES_'
'References_'
'gravitate_'
'initiatives,_'
'hostech_'
'24×7_'
'HostechSupport_'
'grainda_'
'visions_'
'voodoo_'
'thank_'
'dedication,_'
'loyalty._'
'best,_'
'mission._'
'grow,_'
'mindful_'
'thankful_'
'protect._'
'privilege_'
'courageous_'
'unwavering_'
'Mission._'
'Commitment._'
'asca_'
'plotter,_'
'Multi-Function_'
'ASCA_'
'heroslam_'
's.a.l._'
'fastener_'
'cylindrical_'
'Thread_'
'Rolling_'
'HEROSLAM_'
'jkmuir_'
'technically_'
'reliability,_'
'(DDMRP)_'
'hitrainer_'
'non-motorized_'
'conditioning,_'
'weight,_'
'sprint_'
'Non-motorized_'
'myphoto.com_'
'Easy._'
'Fast._'
'shurflo_'
'Shurflo_'
'smooth,_'
'consumption._'
'Lock_'
'Contracts,_'
'Prices!_'
'campey_'
'aerate,_'
'overseed_'
'surfaces_'
'Campey_'
'alliott_'
'Alliott_'
'Alliott:_'
'lendle.co.uk_'
'3.20%_'
'variable._'
'customer._'
'regulated._'
'Lendle:_'
'enjoyable,_'
'lasting,_'
'Grange_'
'bcu_'
'wiring,_'
'Ashland,_'
'cou_'
'Wiring_'
'pilots._'
'noodles_'
'Suburban_'
'abileweb_'
'themes?_'
'landed_'
'multipurpose_'
'Abileweb_'
'2019|Abileweb_'
'iphs_'
'v-h_'
'autodoprava_'
'(pace)_'
'carers_'
'exploited_'
'perpetrators._'
'Exploitation_'
'(Pace)_'
'rugby_'
'it49_'
'Optimization._'
'storytellers_'
'katchen_'
'Katchen_'
'sondermind_'
'accepts_'
'SonderMind_'
'smithprint,_'
'1995,_'
'service-driven,_'
'quality-inspired,_'
[...]
